/**
  ******************************************************************************
  * @file    network_data.c
  * @author  AST Embedded Analytics Research Platform
  * @date    2026-06-01T19:32:15+0200
  * @brief   AI Tool Automatic Code Generator for Embedded NN computing
  ******************************************************************************
  * Copyright (c) 2026 STMicroelectronics.
  * All rights reserved.
  *
  * This software is licensed under terms that can be found in the LICENSE file
  * in the root directory of this software component.
  * If no LICENSE file comes with this software, it is provided AS-IS.
  ******************************************************************************
  */

#include "network_data.h"
STAI_ALIGNED(8)
const uint64_t g_network_weights_array[51760] = {
  0xffffff9c007f7f7fU, 0xb00000042U, 0x320ce483c503e9fbU, 0x12e581b2feeaf507U,
  0xfef7ebfc02f80220U, 0x421fed84c7feed02U, 0x23eb81b3fffdfc07U, 0xfbf6ebfff9fe073eU,
  0x3fb000fe0001fd07U, 0xc40f10dd394d811aU, 0x90ee743328e1f23U, 0x27be180ddbf2f518U,
  0x1dU, 0x0U, 0x0U, 0xddf4e1ee00000000U,
  0xf1c0dcf6d2e8f2c5U, 0xf9f6f2c0d4e481b6U, 0x62faedf3f4e9e9f9U, 0xd7f32fc9e34ebfdeU,
  0xf03ca8de769fde7fU, 0xfae5001bcf0727d1U, 0x901U, 0x0U,
  0x0U, 0x0U, 0x0U, 0x0U,
  0x0U, 0x0U, 0x0U, 0x0U,
  0x0U, 0x0U, 0x0U, 0x0U,
  0x0U, 0x0U, 0x0U, 0xaecb2ccb3818f00U,
  0xf0e9eca4908f19faU, 0xef071adcfe131a15U, 0xb020813U, 0x0U,
  0x0U, 0x0U, 0x0U, 0x0U,
  0x0U, 0x309f332fa62c0000U, 0x813e488d3019d613U, 0xa2bd6021cc81d45U,
  0x923e01fef50b17dfU, 0xcd05fc18f5da22f8U, 0x4d125ffebe601c0U, 0xaa4204ddda06ce81U,
  0x1792f00022ae8U, 0xc000000000001453U, 0x9de00040b1eU, 0xf8fdca28c0000000U,
  0x6789078e161cce0U, 0xf431f731cf70U, 0xfd541dc8ff519f33U, 0x803800000691U,
  0xc6ee1f02f38101ffU, 0x48f8db81d5c34031U, 0xdfc8f981149e00feU, 0x61f904867f81d95fU,
  0xf2f00004090001ffU, 0x280242165cac0572U, 0xfed67f03140f02fbU, 0x7181d999dacd5431U,
  0xe78143577f0dd67fU, 0x7fb7011017dfde41U, 0xfabaed0317138112U, 0x2a0f32cad0b0ef60U,
  0xfceb5cfb03570001U, 0x2ba77feaef007f6bU, 0xbcd33c0c602bffffU, 0x32b90e29eff6ff72U,
  0x81eafbfa1c27fe01U, 0x20e2c02e7f9bd7fU, 0x9e8cfffffec7U, 0x6700004789U,
  0xffffc59d000039e0U, 0xffffffbb00000552U, 0xfffff03b00000002U, 0x308ffffffd0U,
  0xfffffc0bffffffa8U, 0x67ad100015516U, 0xffff0000ff00U, 0x147f0000ff000000U,
  0x810b00faf406U, 0xd402000034000000U, 0x81c7U, 0xffd000007000000U,
  0xff38007fd82aU, 0xe50b0000d2000000U, 0x1fe00fe9f81U, 0xf2040000fa000000U,
  0x9410081d12cU, 0xeafe0000cd000000U, 0xff7f0e00fefa06U, 0x90400002f000000U,
  0xfe7f00fe10edU, 0xcff0000f5000000U, 0x55d3ffffb705U, 0xffff9a46000052e8U,
  0x386900007b6bU, 0xffffb4c6ffffb6f9U, 0x0U, 0x813e02aa0c4c13bcU,
  0xfb11fc81fb8e03fcU, 0xfffcfd81f584fa00U, 0x9df001adf74a7f46U, 0x8eb6b812e70bdf7U,
  0x7f2d25d93d1c29fbU, 0x209fa81f48405fdU, 0x7fbafa28ffde38c0U, 0xfde7077f0d70ea00U,
  0x7f084fe643170801U, 0x30f0300fa00f87fU, 0x811b2cb72e421814U, 0x31c1264037f1e02U,
  0x7f103be234171601U, 0x34e7c58e81cfcf01U, 0x0U, 0xdb1e558126d3250aU,
  0x7ff6011c0deff20aU, 0xd7f047a67f52f105U, 0xe03feeecc160581U, 0x7fdbc43fc78fddecU,
  0x681f4030afb7611U, 0x81039b11c1f60301U, 0x70d1e57fe584f202U, 0x0U,
  0xd5b27f8337665b48U, 0xf20d7f0e69fb02U, 0x1f4c41ab7f50d3cbU, 0xfff7020001000981U,
  0x81e3ca18deebe5feU, 0xfc15f0820881f0edU, 0x0U, 0xc6fa7fb5452efef9U,
  0x877587d7bf367f02U, 0x81eab611cbf1ebffU, 0x203037f077e0601U, 0xfcfc0882f581fa01U,
  0xfd057f0a7c0101U, 0x7fedcc45b6820702U, 0x81231da0366a17f4U, 0xfe7bf00311ff81dfU,
  0xdffb40df4b0d7fa6U, 0xfc087d0281fbf701U, 0x34f79c007f04edfbU, 0x7fd8c45eedaddc06U,
  0x1ff067f0c7c0003U, 0x7f2cdb1605f2cad7U, 0xffffe8fafeded3e2U, 0x4e00000820U,
  0xfffff773ffffdd79U, 0x4700000261U, 0x63dffffec90U, 0x1721000001c6U,
  0xfffff90d00004920U, 0xfffff4da000002b7U, 0xfffff02108969f00U, 0x2ae6fffff868U,
  0x2c2c0000076bU, 0x129000026c7U, 0x70b19800003d91U, 0xbf9ffffd492U,
  0x1e2a000020a3U, 0xa87000009f2U, 0xffffee7b3fffffc0U, 0x10ffffffb7bU,
  0x922ffffff6cU, 0x221fffffff6cU, 0x13fe00003055U, 0xf03fffff69cU,
  0x280effffe94dU, 0xffffeaba000004e1U, 0xd9b099039e05e2fdU, 0x8ffa71f6cf1e12e9U,
  0x2b8e9bf8c3d63326U, 0xcb32812181ee190bU, 0xbaa262a4d93d7f05U, 0xed324b55e2c4a2aaU,
  0xcb815b218c670c44U, 0x91bf7659492f0606U, 0x6c37e42a81bf3d2bU, 0xef631251449d2b64U,
  0xcd8272a3810c3674U, 0x53aa77fd567f95fU, 0x93b76142f6f01a21U, 0x30004b56e16fa21U,
  0x207f7fba14cd272dU, 0x12b6813f9b1ec8bU, 0x7ffcffd7de38fea0U, 0xbfe0f2909796bfdU,
  0xba3a89e19dfefb1eU, 0x81387fe1fd1258ceU, 0xcab5b8bee41c3137U, 0x7f17ecbd76021e06U,
  0xca98709500c930d0U, 0xdf0970a4afc42e97U, 0xcd687f3781817f4fU, 0x867f7c7f05fb817fU,
  0x8112e53883683f52U, 0x1d032281bb02637fU, 0xd5817f81fb81fd6aU, 0x7f4581065c71467fU,
  0x812d7801f4136537U, 0x434ff9d0f0e1559U, 0xcf0f697f07f2287fU, 0xfc0b0fc908fe3386U,
  0x59f403cd0613c581U, 0x3af508be464e3be4U, 0xf8fcdc1ee8fc1ff7U, 0xe6f112f626cd96daU,
  0x1b1c043d5430ea28U, 0xb5c7111b051304f1U, 0xfce21ae21cabd9e4U, 0xf5c4133ab4d0f5e8U,
  0xec1ad27ff01b6015U, 0xe2af1122c5817d76U, 0x380df1b96b7f8166U, 0xf4810b40047f7f1fU,
  0xf5ee1ec342a9901dU, 0x7681dffe7da8d024U, 0xe5f5a04bfefa577fU, 0x6f4f0e881d5ed54U,
  0x19db08cc24fdb660U, 0x3bace1bfc4e64ebU, 0x11fcf8001d0699b7U, 0x440c14da7f8181f4U,
  0xffff8f88fffffd47U, 0x68c8ffffffd2U, 0x5ffffb1baU, 0x4945100010c96U,
  0xfffffee9fffff405U, 0x124800000816U, 0x125e000002ffU, 0x489d00000390U,
  0xffffff0cffffcd9aU, 0x100b5ffffe0adU, 0x3ddfffff41cU, 0x22dd00000dbeU,
  0xfffff79200000861U, 0x21900007a8bU, 0x154f0000025dU, 0xf600000c86U,
  0x658e0000aa12U, 0x12ef0000f655U, 0xffff422900017de9U, 0xffffff1300006eafU,
  0x5bb00000506U, 0xffffe3b100000f8eU, 0x5aaffffff2a5U, 0xfffff2ee00000004U,
  0x14f1f715fe050000U, 0xfdfdf4b7d80f0731U, 0xfb75f70cdaff0a00U, 0x7eb32fe03de0021U,
  0x50cfa020efafe18U, 0xe90183e75b208188U, 0x7f0fcfd1497fe00U, 0x2fe6db000104acffU,
  0xeafb1701f6f5db00U, 0x81fd03258d0100f7U, 0xfc1ef30206050b2dU, 0x1b1fdf4fdff0706U,
  0xfce3111d0301e800U, 0x60804fe6c3b02deU, 0xfb0f17cfacf31200U, 0x1c181f001ca0005U,
  0xeefffe0230dcfcadU, 0xe50112d30ce8d609U, 0x635d709fdfadb00U, 0xfdf5f6fb44abfbf5U,
  0xd1fd0e87f2de800U, 0xf95cb214fae20003U, 0x200300feba3dd6bcU, 0xf6fae82d1800d3fbU,
  0xc3ef12059bcc0b00U, 0xc7e179ed00fdd703U, 0xd4051501061b4900U, 0xc6200746d0f700f8U,
  0xf3a87f8df7d1fad6U, 0xf01ae0050109feU, 0xf00fee2fa08f700U, 0xf8f7f7cc28f609d8U,
  0xfb90f1fb04feff00U, 0xa09e7080727000aU, 0x807fc00fc0910adU, 0x1d048c11a6e47f8bU,
  0xdc1fcff0e1f0200U, 0x19ced0d07f71efeU, 0xb701050717fffa00U, 0x2d01fc7f24f700fbU,
  0xfb08e71a02fb08f5U, 0xfe1600d6fefffe03U, 0xf6001b0403f81100U, 0x3f9fdb1f301f9f8U,
  0xfcf0810605030000U, 0xf6fd1008f8030063U, 0x59fe0000020bf30dU, 0xfffa25fff6031337U,
  0xfffffe71000065d0U, 0xffffb1a000006e2bU, 0x925c00009fe6U, 0xffffe0e800001138U,
  0x16fd7feeafdf0291U, 0xe8810804c75e8405U, 0x0U, 0xe51595dfeefe0781U,
  0xf381e4cb53d4e5e0U, 0xffb7ffbe610068cU, 0xf503fdd87f8bf1d8U, 0xeff7fe7021a1798U,
  0x177f052cd1295715U, 0xf3010d16517feef1U, 0xbf43afd958109d7U, 0x7fff0ced120af51fU,
  0xb017f121e2a0b85U, 0x7ffee8030b10f0f4U, 0xe13d8192e9fdc383U, 0xe7f0c0139d91f00U,
  0x8e5001305027f02U, 0x7f0aa9e80518f6b7U, 0x81fac7b022e70bU, 0xf58106c1a63881feU,
  0x1c81ee09824fdc13U, 0xb4e81c7ff4069d0cU, 0x28cf71811febd06cU, 0xd1028fdef5f44881U,
  0xc7f0425fdfd3508U, 0x8110f4d5ef0a09e8U, 0xf0199dc47f5e146eU, 0x4bf974f80b08097fU,
  0x7f02e9040f0af0f1U, 0x417fec2f9e4a5611U, 0xf0a0f5d78123dc15U, 0xf00206035e7f00feU,
  0xa7f042b0cfa3303U, 0x81fd45ed06ee0f46U, 0x81fd2dfffbee0e20U, 0x637fe40aa1352103U,
  0x10f1da08a1813a24U, 0x17f033c51d724f3U, 0xcfb7f05e40e018cU, 0x810601f8e7f517f5U,
  0x4cee6cfe0dfc2b7fU, 0x0U, 0x815d1d1fa31c3627U, 0xffd30fa948105d4U,
  0x7f030fef10f5eb20U, 0xcaefd81aa2d12ffU, 0x110af23bea0881f0U, 0x7f23bdd10b35dcc7U,
  0x136f00002910U, 0x2860bc840b0U, 0xe0800004077U, 0x2fa9fffffce8U,
  0x1c400000e2fU, 0x2900016e4eU, 0xfb500007f2fU, 0x20aafffffe14U,
  0x108fffffc2fU, 0x44d1fffffb27U, 0xde80000202fU, 0xfffffbaa00000710U,
  0x5d00001894U, 0xfffffec70000220eU, 0x429800000071U, 0x5af00002af8U,
  0x35700001c14U, 0x240c000000dfU, 0x5680000114eU, 0x8200002ae8U,
  0xfdbf41e400000033U, 0x46700002844U, 0x23b00000262U, 0x2fa00000933U,
  0xffeff909017fb2c6U, 0xe401064df5d0e302U, 0x413f97fef10fdf9U, 0xe3d0020001f7f800U,
  0xf7050505060503e8U, 0xeaaf8df7d60c03fbU, 0xea2e9724bd5c8190U, 0x4dc9f57ffc7f1efcU,
  0x101ecefac810c04U, 0xc881efbf07d5fd1aU, 0xfb5c8108d8f8e518U, 0x60b6e01a1d4d9cfU,
  0x2bed2eff006be1f9U, 0xcf01f419ffa8feffU, 0x115fab9e31cf501U, 0x17f003f9003702fdU,
  0x8d5031a0d00f800U, 0xf7000407ae158e02U, 0xfff32ceffe0d2e4eU, 0x39e4abbc73b196e4U,
  0xea7eeca57f04d312U, 0x466b22d300167f0fU, 0xabd40a220f07df87U, 0xd3817f811bebf509U,
  0x817f7f817f307e7fU, 0x817f7f9281fb7f7fU, 0x81a27ff411a47f81U, 0x7f9b817f8181cc7fU,
  0x7f87777fec7fd47fU, 0xdf7299727fe49f7fU, 0x68e28406f93e1a0eU, 0x43e8fff70c3fe99fU,
  0xf3f5d86e64f2a710U, 0xc149ffe1137fdffcU, 0xf27ffd3bedd17f03U, 0x7feaedf4843081f5U,
  0xfbed0a07000315feU, 0xefd50f608f1c705U, 0xff81fe0c2408f9f2U, 0xfbf1e4f206f908fdU,
  0xdbf5fffbcb05eeebU, 0xedfd0ee00d05c705U, 0xc1e31825c9e204d6U, 0xecc18f0fe6fd49f4U,
  0xf878c601ae231735U, 0x2d4675b1fec60615U, 0x24e304407f0cef14U, 0xd5d5f911f57f85b9U,
  0x3de6f0fbfe0f0912U, 0x7000af2ff02fa06U, 0x20500f3060eeaf6U, 0xf1f206f3043de7faU,
  0x206fdf807f21701U, 0x2015fe0ba9ba9403U, 0xfffffe05fffffb30U, 0x5ffffd4b9U,
  0x1ed00003305U, 0x5b20000041eU, 0xfffffc15ffffffd6U, 0x2a900003c1aU,
  0xffffffbbffffee67U, 0xc2000055c1U, 0xfffffea5000012b0U, 0xffffd74300008e15U,
  0x2e1600007368U, 0xe0bfffff871U, 0x3279ffffc9d3U, 0x801ffffff2a8U,
  0x4ac00005f0aU, 0xd1bb0000854eU, 0x5e9afffffcebU, 0x3625fffffe68U,
  0xffffffb4ffff74ebU, 0xfffffe7b00000709U, 0xffffff1ffffffdbfU, 0xffffff3a00003600U,
  0xfffffe1b0000046dU, 0x54af00003935U, 0xe9fc82f3a400f4f2U, 0xfb52fefc2827f916U,
  0x5a18c9090efcd4f8U, 0xfee902e429d7b1fcU, 0xde7ffedf1bbf1d00U, 0xcbe405cbe2f70045U,
  0x39f6f408d0000a03U, 0xc90cd00d1c0714c5U, 0xf5fbad2610031781U, 0xfaf7f4ecce1805eaU,
  0x1ed2f00a2f110ccbU, 0x4e6fe0bcc00daU, 0xde00b020b000103U, 0xd0c041d347d1705U,
  0xfc08f9ef0bf307faU, 0x7fa10a22f8fed212U, 0x10fd02553ff73b0bU, 0xbd0e04c4a03400f8U,
  0x172af500e2000cecU, 0xec05fc02c37512efU, 0xefe090de614fff6U, 0x527ff0e9fb014ff5U,
  0xfb0ffc46a314aef6U, 0x5cedf953b7c40012U, 0x35f6f0e0d900f3ebU, 0xcc4fd1ef1b011fd0U,
  0xadf3f6018171833U, 0xdfddf21a92ff8cfU, 0x27f1d3ff623518c4U, 0xf803d90cfe8100ffU,
  0xdef67ff2ad00fc1eU, 0xf439fe0500ffe508U, 0x520fb524070ed01eU, 0xf6fbf6cf2e00c1edU,
  0xd790f7171bb700ffU, 0xe4d602e31ad1003cU, 0xfbd908c52200caccU, 0xbd019cbf9200608U,
  0xfb19d9d23528fb06U, 0x3f1d7e319fc0581U, 0xf60fca0202f7fcd5U, 0x3fc06fbf5370008U,
  0x2dee0d03f600fbe3U, 0xf2027de3ad7260fU, 0x152947a30f062be6U, 0xffebea33a531fdedU,
  0x4300fafac8552a01U, 0xf4351f06067f0029U, 0x5ba6fffffcb4U, 0xffffab48ffffb006U,
  0x451ffffbda2U, 0x9ff000005aaU, 0xf403c307657ff03bU, 0xfaff0b10f8008107U,
  0xfc047ffb229e1293U, 0xfa031d005d7ff0e7U, 0xec0e8110461ee87bU, 0x91e42e797fad2510U,
  0xc1636cb17fa718feU, 0x46999d59812aa2fbU, 0x431af59e7fbadce3U, 0x5fde900a1810315U,
  0x17f1137fef034ffU, 0x50e1ac7fd307d0d6U, 0xdf47ff7d9ecfd8aU, 0x7fcf7470130b2574U,
  0xff97e01f7160181U, 0x6227e581f90393f2U, 0x6301b37f08f76ac1U, 0x41f6c77fe1fd9bceU,
  0x19efdf0b7f95dcc8U, 0xbbfd348122f95536U, 0xbded0c5e81452c1fU, 0xf2030ff77f0907eeU,
  0x10ec7c05cbedfa81U, 0x14caecfc816c080cU, 0xf304810318c9eb7eU, 0xc71d81ddf419dc98U,
  0x11ede6258141033fU, 0x1381dddc060616eaU, 0xba7f43d37ebc2d28U, 0x27b9e9137fa3c6baU,
  0x2f03f32181280404U, 0xefe7ff7d7df128bU, 0x31f7ff1b0512299U, 0xaf77fefcfe80e8eU,
  0xfd118106833fee70U, 0x6f2bd6818948d8f9U, 0xf51dd5fc047f082eU, 0xb57f2ebccb2d4a44U,
  0xffb6f21c7fc5dfe8U, 0xb4f13581f6fbdf42U, 0xf202cafb56810032U, 0x818fac37ffef2U,
  0xf881fab40412d705U, 0x410bc47feb099dd3U, 0x40636f181290cd5U, 0xbe7f65c055df3e09U,
  0x1f01db5ced0381e3U, 0xf80d9623f0041081U, 0x7d4000000fcU, 0xffffffe900000278U,
  0x8500001042U, 0x13840000955cU, 0x6e000000b1U, 0x144afffffe55U,
  0x1a500000dfcU, 0x49700000044U, 0x73700000157U, 0x44cb000017b5U,
  0x51b0000004dU, 0x3c7200001575U, 0x370000009bU, 0x69c00000cb1U,
  0x10b5fffff9f8U, 0x106d0000109dU, 0xd7a00000109U, 0xab0000010fU,
  0xfffffa3c00000128U, 0x13f00000169U, 0xfffffffc00000304U, 0xc7e00000407U,
  0x6ba500000005U, 0x167000011d4U, 0xd0c0438bcfca3f5bU, 0xb123341857bc3b2dU,
  0x8d59eb1e17ae33c2U, 0x1ca5d22f3278c841U, 0x39bf40d9383d79c8U, 0x39be22c958b044dcU,
  0x8a7f427ab4ae5a7aU, 0xa64c4d7f6caa5c50U, 0x8118d44ab2f55facU, 0x97208150502aac53U,
  0x549b51c54f5c55adU, 0x4da4b4b1e09d5fb4U, 0xf80f0a77d7da2631U, 0xdd2f215933d63429U,
  0xbdb1da323d4745d4U, 0xfb6c9e362181e623U, 0x20cf1be21f2be5d2U, 0x1bd9beded1d228d1U,
  0x7f674c7e9fb1595cU, 0xb94858aa12a46150U, 0xfd13c74d3081479eU, 0x7f81215056f19a60U,
  0x569956ba546167a9U, 0x58a75eaa7f9c5bb9U, 0xd6827f7f81817f7fU, 0x817f7f95f3817f7fU,
  0x177f817f81117f81U, 0x960c1d7f7f13817fU, 0x7f817f817f7fa781U, 0x7f817f81c3817f81U,
  0xbeef38c9c4b83745U, 0xbf45323cdfc3423cU, 0xc12b63b607b5fb5U, 0x967d053e3624d03cU,
  0x35d441c2353d81a9U, 0x31ce01c4b2c73cbeU, 0x21d8117dc4d9281dU, 0xe72d2f1099d43c29U,
  0x59b7da381eb227c9U, 0x46c541382483ba31U, 0x2ac521d12228f6cfU, 0x25e1b6d83fc81ed4U,
  0x372740c4bbb53932U, 0xc03c40b581c04237U, 0x7c0bb73cb52038b4U, 0x37f5653a2f27b142U,
  0x40cc3db53a3f8db1U, 0x3bd020bde0af37beU, 0xeefe359ce5da1822U, 0xd71a14efaedf1b15U,
  0x3a3bdb0e2c412cd9U, 0xda4236071048e920U, 0x1cfa27db1e1ff9d9U, 0x18ef38ddd0e221e6U,
  0xfffffb88000088d6U, 0x1087200004e3aU, 0x563ffff7c08U, 0x5d6fffff189U,
  0xf7200000a31U, 0x10830001b39dU, 0xa92fffff9d8U, 0x75e200000305U,
  0xd0e0000b0a8U, 0xffffefb0fffffc04U, 0x141c900002036U, 0x4f9ffffd7f5U,
  0x69e300000744U, 0xbe0fffffb7cU, 0xfffffebf00000e87U, 0xa04ffffed91U,
  0x52a00005536U, 0xf22000017ddU, 0x2d270000d29eU, 0x208e0000e0beU,
  0x2af60000dfd6U, 0xa200007d1cU, 0xffffca7a0000dc85U, 0x74a000251c5U,
  0xfe04c302fdfe7f09U, 0xd505fbfaf6fc062dU, 0xf7fc08d209fb2115U, 0xfd02f017f910eefcU,
  0x110813fe3a0cfbfeU, 0xee1cfa0316030500U, 0xd9e107101be3b508U, 0x191781dfacfd01f8U,
  0xbeb31c52e5058f1U, 0x15ddce7fd0e2e98U, 0x29c8dad0d51c121cU, 0x82c2dd3658fb1d20U,
  0xfefef400e80cf316U, 0x4ddfa05f7f681efU, 0xfb0402fc060207feU, 0xb02f1fceffe005aU,
  0xfe10e8220b1e05e6U, 0xfaf3ffa8060aa5ddU, 0xffffd9020b032ef3U, 0xa0416f9faeb0381U,
  0x6fd185202fd11fdU, 0xfe08fbfad3fc01f1U, 0xec14fbf53a1e0402U, 0xfce6fd0704110b16U,
  0x904fb09f800ede5U, 0xfafbc200de2df00cU, 0xc505cad9123f1cfaU, 0x182df3153a181251U,
  0xda2602f1167f1315U, 0xbad3035b1816c8f4U, 0x701fdf2f32ef5f0U, 0x181f2090700f909U,
  0x1208091ffc030206U, 0x5080a00f6050829U, 0xf707e5eef2ed11U, 0xf4f3080efbff20e5U,
  0x8fd40fbfc057f0fU, 0x1606030909ff16e4U, 0x407fa210b054602U, 0xa030c011ef50608U,
  0xedfa080392e9ff06U, 0xfeb080e0bf5fcfdU, 0x3040b04810607d9U, 0xf6f703fa0c09b3efU,
  0x1fbc410fc060200U, 0xf3fe100b110204fbU, 0xf3f713ed13fd0401U, 0x1ff0325f9ff2542U,
  0xf9ed81c6a001e650U, 0x23f42450c110293fU, 0xc755033810fd12faU, 0x57fce6ac13f3fe40U,
  0xe2208d2a8ccbeebU, 0x2008f2ef10fdeb1bU, 0x14febce2151bff81U, 0x3f1a3170bedd113U,
  0xe02d19570f5c1e05U, 0x322a3de1f1213045U, 0xe8a25037f89addbcU, 0xab0c218118f81d30U,
  0xb08f1f021c302fdU, 0x23a142c1f03de46U, 0x12293d27edfecef7U, 0x23eb27ddd20ef3c2U,
  0xfaac3cebe47fec27U, 0x1d0d0e5ae601d228U, 0xf4fa01fefc0201f2U, 0xfffbf8fef2e4fe34U,
  0xf504fcdff80ced00U, 0x200fff88100f706U, 0xc5d80b04e8ebff01U, 0x6d3f607fd3e0103U,
  0xe6f1faf503013ed0U, 0xfdea1cf9e371ec17U, 0xeafb13f3d50b811cU, 0xfcf7f3b51ff8fdefU,
  0xd2e8d902e706f503U, 0x29a6eaf7cb2cfa18U, 0x362903e81fee03eeU, 0xfb0a00160907e825U,
  0x121db32307e01d03U, 0x190fec5b3113fdbdU, 0x27fba2dd832df0fU, 0xe1e72a19f50605deU,
  0xe9ec1fedef07e59fU, 0x3de32ee9eabdb4c1U, 0xc6e903e422de66e3U, 0xf2caf2cf2cc6f2f9U,
  0x7f2e10048406ee1fU, 0x3375ee4125abcc1bU, 0xf900d3fd0a0ddce5U, 0xe9e27ef8cf13e661U,
  0xecfd08d3220834abU, 0x50ddced3b0ad8f7U, 0xc8fbe3044afcf3fbU, 0x7fe7eded200708fcU,
  0x398affffbc4eU, 0xfffff301000062b8U, 0x1b79ffff9db4U, 0x63eeffffbcb4U,
  0xb73300002652U, 0x7b6dffffd753U, 0xffff68a4ffffff53U, 0xbc00000e19U,
  0xd914a82f181c18fbU, 0xf31d0beb7fdff2U, 0x19010d09ff81fdf0U, 0xe1dddfce12d5bb53U,
  0x231ae27fafbc9ae8U, 0xe2ff08110cdd3ec1U, 0x3e508fc32eeebeeU, 0x60609c57f04f2fcU,
  0xf5e2131cd8140aa9U, 0x7ff528b51b313459U, 0xb3b62b837f03142dU, 0xc0ca2c39e620803U,
  0xebdc64f7f8b0804U, 0xd93e1f2b0c71cf0bU, 0x2ae97fd10aa31c1bU, 0x4950373e17f34a86U,
  0x12137f50fd3eeb29U, 0x1ef3c4fae559c2cbU, 0xf8ef1b8137211f09U, 0xff8dead08641e4fdU,
  0x2c4f0ca754de40aU, 0xf8f00d04de814329U, 0xf86df6d00c0efc5cU, 0x797ff3e6e8fbdf06U,
  0x3405c781e2283715U, 0x6e31a0cfe0de7faU, 0xf6ae091ff10456a4U, 0x81ed0b0000ef1d14U,
  0x56047f71f4a10d19U, 0x85a180f1133bcd2U, 0x1e1ee57fbcafba17U, 0xf42f0a1034c122f6U,
  0xf481fc15dc0218c5U, 0xecf2203a06f9ea0fU, 0xe9ee38e5e307ff26U, 0xee225ff2242a2e7fU,
  0xff810601faede1dcU, 0xca250b002002fd08U, 0xc4e1bf525edef7fU, 0xb505f9490dfdfbceU,
  0xf881f324f00506d4U, 0xcd2a05f440f629f2U, 0x1229f32281ffe0dfU, 0x2f194be30be904beU,
  0x10cd2cf564f551fbU, 0x7fafeacbda0840e6U, 0x210e8117e8e8eeedU, 0xf8f609fd0c251208U,
  0xf346f3f30a0c1a7fU, 0xe80e013806f0e912U, 0x520481d4ff0211efU, 0x4fb2f191b012d01U,
  0x960cb6fd028114f0U, 0xae2190b12e80a0cU, 0xde192a9fcc74ddfbU, 0x16cdf3f3f1812a0aU,
  0x5e80c04f3e5302bU, 0x1b2f0581f9ed1a0bU, 0xffffd59d8f42e711U, 0xef421b405681291aU,
  0xeefa1ea2e6f1b7edU, 0x987ffd63d325bc0dU, 0x12ad37d357c614f2U, 0xf60a8111e40ddf34U,
  0xff4ffbe73407090aU, 0x7f7702dc2bf9dd13U, 0xf7811010dcf920ecU, 0xa2fa140026e3f926U,
  0x220f237a41c7ed19U, 0x4ac17fb28942e5b2U, 0x42a1d1281c10d01U, 0xf8f05bde2ac3a1feU,
  0xf37ff7f31541ed30U, 0xb92fe950b3faf5f3U, 0xf6e639c55d6015fcU, 0xc55c2b7f4a9004ccU,
  0xddca1da8c8184133U, 0x23ccfd268120d2f8U, 0x199cf87fc4cfea32U, 0x94c20b7fbde746e5U,
  0x7d8c4440d46ef53U, 0xd8454681f6f442d7U, 0x5e1081a6d46924f5U, 0xf805221c083015edU,
  0x731b08e60f7f0810U, 0xfbfc0a0be0f60b2dU, 0xe716ec7fba0d0af6U, 0x410110dd46d33dd7U,
  0x810c3a4d12eae8fbU, 0x60ee2fcfbfaf9e9U, 0x27febd3c24c10ceU, 0xfd1fc60ef333f8c8U,
  0xd33900818353361cU, 0xfdc827ef0528abf0U, 0x810523070df7f00bU, 0x1906fe0df1fa0dcbU,
  0xfe81fb06a40110e2U, 0xfdebf4e7a102151aU, 0xe71b9722fec7f2d9U, 0xc797d1afebf2be7fU,
  0x73fa08ff097f0710U, 0x2c070a10e90f1de8U, 0xf07f1bf3551dea39U, 0xd31d054c1909fbf7U,
  0xd51581e6fd0ef5ecU, 0xfad91af6eff73105U, 0xeb8dc16e5faf17fU, 0x19a9f0fc030b0503U,
  0xefeffbedfff0ea81U, 0x330103bdf016f1feU, 0xaed25b37fff00ceU, 0xe6aceabda96c102eU,
  0xe6f0fafc3607e73bU, 0x3cac1d0b7f1af2e4U, 0x7ff8e1d3f24a0900U, 0xfb0a150307fc0219U,
  0x2903060afc81f9fbU, 0xe0dbe6da10bcc162U, 0xeaa4ef08eae2ed4aU, 0x19f2e681e011f51eU,
  0xfec7c428140d07aeU, 0x7ffecfb50df1f1c8U, 0xf8e3f1fa7f2012f9U, 0x4ae3cee3350f170cU,
  0xe91e04283c127fe4U, 0x78391bd825d1151eU, 0xf19be4d43a23ed73U, 0x969b97eed01de7fU,
  0xb9f78b0f1781eff2U, 0xfd28272e19f056e0U, 0xc811c4dbf17f0ef3U, 0xfad9f4f1e71d0211U,
  0x77f09f7461dea3cU, 0xd63d0e6a3001f0caU, 0x2028120ac789e033U, 0x7faee4dbc31bd8faU,
  0xf938f6fb310910ebU, 0x7f1bf7b535ff0106U, 0xf80c2d00effdfb09U, 0xb005b181723317fU,
  0x21de047f42b1bd06U, 0x1206cd0fb3fd5af3U, 0x52057f2e2337010aU, 0x150ce6fbfde8c414U,
  0x214e31c3401dbecU, 0x7ffae18a6dfbe804U, 0xe12618b58125361dU, 0x3bf42ed12f3abf9U,
  0x2b58f6699681bd12U, 0x37f24ff3049efefeU, 0xd81f3e62e0d0c5dU, 0x4fe7df1ed5f5e6dcU,
  0x341d15498681edf7U, 0x1a9db3c0b9262718U, 0x7ff5c9cefa180f04U, 0xf301150b0909fc17U,
  0xee8107f7ff1dfcceU, 0xce5a1ada75e71804U, 0x1de829d37f03dbd8U, 0x1fc2f9faa20831dbU,
  0xd8ca44f5caf6fc70U, 0x6cc7f266e364b7fU, 0xb28f1fd7f0313afU, 0xc80ae9eed4d7fae3U,
  0x28b51d356ed9a711U, 0x7fe6a5dc9c3852e5U, 0xffd30df721fa03f3U, 0xe8fe0bcf7f0df704U,
  0x9eef347f5d41b19U, 0xe756291b337fb8eaU, 0x16f5818ff3db3a02U, 0xf4003e1d19f845eaU,
  0xfb81e0f4eeec2f6dU, 0xe51d850446c4a685U, 0xfc7ff9e7281c1113U, 0xe2fc0329e4fff4f1U,
  0xad6c80f1af80d2cU, 0xf3f7a20506d5c881U, 0x8a0981eb0fbdfaeaU, 0xf0ec0a08f60638f6U,
  0xe7053201ed811803U, 0xef8f40319eadf03U, 0x1bfac41b100a18e9U, 0x10bb9ae4d2e3d581U,
  0xadf781302786e3f8U, 0x100d1021fc195bc5U, 0x4bf61f81f887201fU, 0x3b3f354a2dd67b9aU,
  0x57067f09eb6b1e0aU, 0xfcf5e0daf5f1a33bU, 0xf9e7f7e9c00b11f4U, 0xff18f71c81000308U,
  0x47800000bf5U, 0xfffff99300001b3dU, 0x1a2a00001ebfU, 0xef0000001b6U,
  0x1fcd00000a3dU, 0x4d70fffffb2eU, 0xfffff625000007abU, 0x1fdb000006c0U,
  0x150000004eeU, 0x1301fffff08fU, 0x29bd00008259U, 0xd7f00003506U,
  0x87700005c5dU, 0x36e000031dbU, 0xfffff663000008ecU, 0x27ffffffb2fU,
  0x58b9fffff53cU, 0x9310000185eU, 0xffffee0e00001927U, 0x2dc00001e75U,
  0x1c090000062aU, 0x3055000019a3U, 0x2fee000010adU, 0x23800005be5U,
  0xea500004b9bU, 0x1931000005b2U, 0xbd5d0000065bU, 0x18cb000007d1U,
  0x571000012b0U, 0xf57000005f4U, 0x60e000021b8U, 0xfffffbad000014ffU,
  0x98300001fdaU, 0x2e630000141aU, 0x3ddf00003594U, 0x101100001c40U,
  0x745c00001a72U, 0x22ea00001e96U, 0x170500002124U, 0x1ac50000480cU,
  0x1e40000027b5U, 0xfffff34f00003278U, 0x19bafffffd6fU, 0x3977fffff5eaU,
  0x1b3d0000083bU, 0x8a2000002ccU, 0xa500000b4cU, 0x120c0000327fU,
  0x1f003b01f930073aU, 0x810108c202811ccfU, 0x2010ff0e2a1a20f2U, 0xa0605cbf803290bU,
  0xaafc12f203fe0afcU, 0xcefdde0e1d36e7e2U, 0xec0d0131fe1e0d0fU, 0x35f0f6ec0afc0af3U,
  0x3cfaff08f8edf302U, 0xf8100bf2ff0ede03U, 0xe1d8f7fa0bf9d97fU, 0x1bfe28d103c226a2U,
  0xc112781157f817fU, 0x69160ebefafe7fd2U, 0x14f5eb7fd53fe6f7U, 0xcff108115fa7fddU,
  0x100c02ee15dfecc8U, 0xb916ec65e90d932cU, 0xbb107f26813af8e7U, 0x1b818181110560dcU,
  0x7ffd1cf91e93c953U, 0xfbc2faafd41bf681U, 0x2c1ef811ebed2458U, 0xf94c28ccc981cb19U,
  0xf9fdf1efff0f1103U, 0x1e09fad7fd8517e3U, 0xf2f4f802f10709f2U, 0x712f103f718090fU,
  0xacee16240af90608U, 0xe1fc26d2f9d04affU, 0x1708e623022f0f10U, 0xec0ffbfcfbbcf9U,
  0xf8fbf208f908edf9U, 0xe30efbf6160add0fU, 0xd4ca00fd07150810U, 0xe5f726e0f7dfef7fU,
  0xe0f7fb002da04edU, 0x621c0f0af502e62cU, 0x7f73eeea7f34dde4U, 0xce41a8a170910e1U,
  0x952214d90fd2e7fdU, 0x20e6fdb77f29db6cU, 0x7ff610eaa0f3054cU, 0x7f42742e0bd80681U,
  0x4d520ebb357d204U, 0xecb7aa15db12062bU, 0x290c891a12e9220bU, 0x7ffafb15d1878e25U,
  0x817fb1127fa1efdfU, 0xb7817f7f811c917fU, 0xd68181b1e181817fU, 0x7f817fac7f81cd81U,
  0xb57f81977f7f9c81U, 0x7f81817f81817f7fU, 0x9681e381ea818181U, 0x5a1e451b7f7f7fa0U,
  0xe2897f817fe3817fU, 0x817f817f81817f0aU, 0x7f7f197f7f9d7fd7U, 0xdb79817f7f049717U,
  0xe08b934fae503dfU, 0xe92208cdf4bfede4U, 0xc111f3f0b243ffcaU, 0x116f5e60e45d4d1U,
  0xa9151d7f0eddf0fdU, 0xb9e604600e0ee2abU, 0xe20e00247733075fU, 0x524046c511ef75a3U,
  0x9e519efbfb5ec5dU, 0xeecbf902f5170350U, 0xd90a7ffffc7f09b5U, 0xa37f0bd5ddb11cd0U,
  0x9030c23faf017ebU, 0x2715fa1502c7fafcU, 0x2718f509100a0ef6U, 0x60e0109eef9d616U,
  0x9fd80e110cf00fffU, 0x241b298f16c232eaU, 0x3b10eafc15060c12U, 0xf1e50103f0dea651U,
  0xcb27ed07fd06f59fU, 0xe20e27031d13cf06U, 0xe0d6caf904f508f6U, 0xcae0e0bf5b7e366U,
  0x2606a05e10fd11b7U, 0xdb0c0d15fdc5000aU, 0xa4f3e8dcda26f4c7U, 0x221506120fe3c6cdU,
  0x239627d429bd7fcfU, 0x206bf8d5ef0d00a5U, 0x161710ea75fe09e9U, 0xf495c15410cb0853U,
  0xbb7f17fc0a7fded7U, 0xe8b869beec2811bfU, 0xf704120c06e015e3U, 0xffdaf00fe1c27fc7U,
  0x8030c02fef31007U, 0xf50cf5c304b8f1d8U, 0xf2f1f50b030a1bfeU, 0x1005fa08f52ff81bU,
  0x81cb071b0cf10703U, 0xd718db11f73ed514U, 0xf20ce90706260a0dU, 0x17091526fff10f57U,
  0xe918f90afe05fd17U, 0xe9120407eb14ce03U, 0xb5eb28fb0120dddeU, 0xf8142ad90add25c7U,
  0xfffffbb4fffffea6U, 0xfffff8d100000011U, 0xffffff4a0000059aU, 0xfffffda0ffffd4d7U,
  0xffffff73000044eeU, 0x369500007a06U, 0xffffe1590000545bU, 0x12afffffeb2U,
  0x3f5900002a47U, 0x30800001582U, 0x446cfffff88aU, 0xc7000002b2U,
  0xfffffeac00005af9U, 0xfffff0d100000966U, 0xfffff31200007ee5U, 0xffffbb2d00003755U,
  0xffffffb00000f36bU, 0xffffac1f0000005aU, 0x2894fffffd60U, 0x5b23000001b2U,
  0xfffffe95ffffe568U, 0xfffffe3e00000702U, 0x2788ffffec2aU, 0x3af00000020dU,
  0xffffffb7ffffe5ccU, 0xfffff68000004728U, 0xffffd43f0000006cU, 0xffffff7300004164U,
  0xffffe30a000013c7U, 0xffffe35500000249U, 0x6c18000002e7U, 0xffffd54700004a27U,
  0x693affffd482U, 0xa6fffffc73U, 0xffffb3d000003fb7U, 0xfffffb0200000120U,
  0xffffec4100006c7eU, 0x51c400004d25U, 0x1ebcfffffc50U, 0x537f000056d6U,
  0xffffc47fffffefdeU, 0xfffff745ffffff29U, 0xfffffaedfffff000U, 0x520000025d7U,
  0x1a0f00004968U, 0xfffffea300009666U, 0x2a490000275dU, 0xffffff72ffffac70U,
  0x611e8022fd003eaU, 0x2efd08df14f5cefdU, 0xea032ff6fafde7beU, 0xf1e2facf09f1ddefU,
  0xcd101efb08fee6baU, 0xffeb3cfef8fc1113U, 0xd6577ff2ea04132dU, 0x210af0f9edeeU,
  0xdfd6f02d0aeb18e9U, 0x3487defd0dd313ddU, 0xb51e08060efcf7ffU, 0x16f8f5eff802e60dU,
  0xe42e25fefb01f4efU, 0x8ec3ef42504fe08U, 0x3a7ffacd67f8e9ffU, 0x60110e61240d515U,
  0xc8100e3bebe7b5b5U, 0x40323234206edf3U, 0x1cebbbce0c1fee19U, 0xf2b4bcfd250c0c23U,
  0xd703416e34f9ed03U, 0x226eae920fc02f5U, 0xe503420a06791d2aU, 0x6425e70ddfd4f22eU,
  0x23d9f1381b0d211fU, 0x1204ec15d5fe1303U, 0x1614f82f1d43fcfcU, 0x3625e70984c841e5U,
  0xa938281225122a15U, 0xb1091f0ffc03100cU, 0xfb29dd161ac6eb2dU, 0x18c5f444d4091531U,
  0x271d163b1820fc2aU, 0x1af7191eef071381U, 0xf3fb2eeffd16144aU, 0x50ed23c1e212fb7aU,
  0xf234160817c70816U, 0xf1f6baf1d10837eeU, 0xf51d671907170be0U, 0xfb13e80a22080ae6U,
  0xf5b9fd04ea04091cU, 0xfabbe4f9d70d0506U, 0x29fbf4e3eb101001U, 0xfafa6efadee719eeU,
  0xfd260dfff0ee15f5U, 0xb62fffdfed8c81caU, 0x40000ffd312713ffU, 0xfe12f9000bf70e04U,
  0x17c412e2c6d6fd21U, 0xfef9e3e6f8b0b07dU, 0x2a3a21f627111e14U, 0x190bc611ff23efe9U,
  0x47c1e61e1015c7cdU, 0x14aed6e83b1210fcU, 0xe722183df5f115d2U, 0xf24501c4d7fb1ab5U,
  0xc2cbe1e542cf1819U, 0xfa1dbdcbdb362c7fU, 0xfe0c5c3dea22f1b4U, 0xf7c149952b12e18fU,
  0x5caf5f7030df4f0U, 0x4e310ae11ef1c7fU, 0xcf03fa02fff5dff4U, 0xeff7eef818f21102U,
  0xfefa01ffff07f3U, 0x26130ff60aecf0ffU, 0x18f5fe04f0ea23f8U, 0xf4f8f21915052f04U,
  0xff13f00dfc182750U, 0xeff203050cd60b02U, 0xf8f011280b06eaffU, 0xfccd35a8faf5ed04U,
  0xfdfceb01eb04eb00U, 0xd4f8c0fbac060313U, 0xf9063a23041efdb0U, 0xede627eaef11fdd1U,
  0xf50815f026fe132dU, 0x219e8020be9ecf9U, 0x612bd10c204f6f7U, 0x5ebdd18be0c0903U,
  0xfff00cff11f3e908U, 0x41f70205464334f5U, 0x7fe200ff15021a01U, 0xf90900f5f2fdf00cU,
  0xf83007020119e2f7U, 0xe30d6efd0114f8U, 0xc03e8fd01f30609U, 0xc1ee0cfb24f2f4ffU,
  0xf4f00aeae9fb0801U, 0x8108e843fbdf0ffaU, 0x6ddfc08048ae4f5U, 0xf5f6fafc0923a004U,
  0xf905110af3fe3e48U, 0xe4e415fcfa08050eU, 0x702e80209fdfe03U, 0xe9c6f7a204ba12fdU,
  0x1aecd09206c2baf1U, 0xfe160921f4f8d90cU, 0xe509e7d808f0811aU, 0xc3fafbf1ea1cd41aU,
  0xf3f41c18ddd4c21aU, 0x7ba3e4cf8bec8eeU, 0x22173e24b402cf27U, 0x2e111828264be8ffU,
  0xece593fafe3eba28U, 0x1b35d0e750f2e1f7U, 0xbcbaf1e9fe22b7d6U, 0x20f301f4c4bbbe1aU,
  0xde1f24e1bef229d2U, 0x1315fa7ff0610383U, 0x1641031833f3d9e0U, 0xf083afdd303f3dcU,
  0x8ed0b20360a1ce6U, 0xe5f3ea4d48f40300U, 0x383c14e2ec2015f4U, 0xf6f7031de0e126d4U,
  0xef00ab05511d0be8U, 0xccadf07030b0a2cU, 0xe5ce26e20237bedfU, 0x2871d418073cefefU,
  0x1a23faf71410155bU, 0xfac4e8edfe051b6eU, 0x11cffd2edcf5d6e1U, 0x2ff4c60703ef2c08U,
  0xff08ff03ec0e2011U, 0xf33080ad2f40debU, 0x1fe0fffbede6f4ffU, 0x13faca280ce123f8U,
  0x4410c8effe32100dU, 0x25811a2b26d4eff6U, 0xd9d8023bf5fabdf5U, 0xe2fc14260109ee0eU,
  0xd90eeef47ffdfe01U, 0x2af4c01627ebc7e8U, 0xff9e4f009fbc8ebU, 0x8f3e261e0cfcfff3U,
  0xce96c72507ee0ec1U, 0xfef30b1f15ff13fbU, 0x14ca31cee7f71011U, 0xf826c70424eaf9b5U,
  0xf4c6f657fe172406U, 0x161de5f7097f490dU, 0xf814f6057af3df02U, 0xf912f2e404f0ef18U,
  0xcd2e06ef20da1ff4U, 0x5d9b6143408dbe9U, 0xf4e3fad2e07bf204U, 0x3ce42f7f0ed70ecfU,
  0xcf5e7f73ddacdecU, 0xf0d000fae3f3feb3U, 0x1231e4bfedeb1806U, 0x4f48f1fbecdc01f9U,
  0xfef8f82fd0f039f6U, 0xd38ede106550e25U, 0x34eef902bff3f4f8U, 0xe41af4e7e317f022U,
  0xd5358cd110182e11U, 0xfe241f371dbe1fb6U, 0xeefd15d3ec0b844cU, 0xd401eeeb3ff3e0edU,
  0x1a07e914d17f0ed2U, 0xbc0b524af8cb0418U, 0x25002b1cbed511e4U, 0xb6ee2a4902002a00U,
  0x3ffa7f4f34d1a08U, 0x8173f5dc1e4d0123U, 0xefb5e7e807e4c4cdU, 0xfc42da47e325d3faU,
  0x406f0dab4b60beaU, 0xb4e53fe7dddbb2f4U, 0xe2caefc10981f2f8U, 0xd8c1f7897bd7ce48U,
  0x16f2cee2dae5da6eU, 0x4e21ad8e4e2cf29U, 0xd6f0b3d9e5cc4b17U, 0x193900d450cafa0aU,
  0xc1a7099608e465f9U, 0x1c12e5f72c29f204U, 0xd502eb4909d32cdeU, 0xfbe7f7d1de11dae5U,
  0xed0ff2c04ad709e4U, 0x11f0ccfdd429cb05U, 0xf412e214ec4a21fdU, 0x32500d1ffb0eef19U,
  0x1162818180cf97fU, 0xfcee10f60cfc01d4U, 0xd9915aee0ef60d38U, 0xf81521c6f5f9fbebU,
  0xe3e7dff01cef2300U, 0x1905e70ffdf20c13U, 0xe8f5f400dffae3f4U, 0xaf50904fd14f009U,
  0x3eb200007603U, 0xfffffe02ffffd2f5U, 0x42d4ffff9fb3U, 0x6a6dffffd2a9U,
  0xffffece300001bb4U, 0x40d500006442U, 0x2c02ffff9de9U, 0xffff558d00007f70U,
  0x2484349893b72403U, 0x9a7f1fcf232ab6e7U, 0xfe54e7e77f4bdb6eU, 0x3dd7042a7b12d4f1U,
  0xe414d0164b451b81U, 0x5a58ffc759d3f93fU, 0x815dd0481fcf8fcU, 0xdb52092160d8f8b4U,
  0xfa148132ea0cf3ecU, 0xebd804def33bde3aU, 0x8104690a260f03ecU, 0x4d7d2eee0d8dc12U,
  0xc404187fd277d4b2U, 0x89f7ab9c1ba9b27cU, 0x8f919d9254111bfU, 0xc081e5da65f057d6U,
  0xe90843deff220743U, 0xe7e74d2a20322c7fU, 0xabfc4653fb7fb4f1U, 0xe70aced0f325f608U,
  0x81ed62161d01f802U, 0xb11deffec11e3f0U, 0x1c4ea067f08060bU, 0xcc161f10ebfcf600U,
  0xb05dd6c15d72081U, 0x5336d69e790b0726U, 0x28ef81eefbfa0defU, 0xd20f251220fb181bU,
  0x32300fd1801fc81U, 0x1e29041f1205fb05U, 0xed030c1f6af2cffcU, 0x2a8163af91f31bc2U,
  0xa0cfecbe0120741U, 0xf3f57fb1ece88adeU, 0x7f1fe437fe16cdf6U, 0xf9a5d3d5e7bbcb6bU,
  0xf85fad311fa7152dU, 0x65c3f20d81b7b3e8U, 0x78107f64d2704c1U, 0xb5f6f0f7ecf801cbU,
  0xe2da3ae53016c2efU, 0xfc1be90602814117U, 0x89428cfc1d60311U, 0x816e2ef22c06dfe5U,
  0x68132ec3cda2de9U, 0xe379090d461b0709U, 0x112649ec204b3faU, 0xbf9f3f00a57f2b3dU,
  0x7fec03380b52f1f3U, 0x18e8090ef2c8fc3bU, 0xf82bf32656ef1501U, 0x562f1bcf7fe5ed01U,
  0xfb2bd90c04f4145aU, 0x7f0aeff11ceac7f1U, 0xfdcaf31931eaf9f6U, 0xd3bebee7ffd04f3U,
  0x316f2e411f1d3dcU, 0x7f0b200a0800c7faU, 0xfdf3080c01ff0446U, 0x81ec020c0cf91ae2U,
  0xa40a81e505ec2310U, 0x1e1d6940053435a7U, 0xe937e9e9574253fbU, 0x7f20dce845e4db32U,
  0xde2abe0ef8dfecf5U, 0xe2a0c5b4d802b37fU, 0xf33bd423faeedaeeU, 0xdeabcfcedbe4e07fU,
  0x48c581eb1b0809f5U, 0xd24662f0fbf107fdU, 0x1b8123d0b7eb10e8U, 0xa505f3e0ea03c60dU,
  0x8108acc0f19f1deaU, 0xdfa9ffdffa0cc431U, 0x237e8fb81fa0712U, 0x1f021b0f1af9e9ebU,
  0x141b13aed219b17fU, 0xc2a80745d83ad9c0U, 0x23f004e87f06ff08U, 0x17eddd16cd1a29feU,
  0x34402fc81ef1016U, 0x14fce8f22e170ce7U, 0xc6535bd5075f1cc4U, 0x1fea6de7ee325e7fU,
  0x4a50de118e72a03U, 0xdc28272e7ff1b8f2U, 0xf98117d8bce74999U, 0xbb6b27031beecd0dU,
  0x6c9cc0919221231U, 0xeff899e108c4c981U, 0x6cc11b3ba03fae1U, 0xa38f84b8103ca04U,
  0x160a1de4c1eb10f8U, 0x95f0122881f7fdf4U, 0x28d3ecea7fb94c14U, 0xf0e729ca7ec512U,
  0x9beee0b7f08d72fU, 0x6c4e6e5a8f5220aU, 0xfb107f31f601f6f2U, 0xfe2ae90905fbce1bU,
  0x4e41fe81d2d5585dU, 0x3590f2f0d04eebd8U, 0x17fed2331f4f229U, 0xeb0b2b4df6d9ece8U,
  0x20eb041206bc1a16U, 0xf7e6157f4be0c114U, 0x39f3c22f20ef351aU, 0xf8db18e9e57fba01U,
  0xebd1ceecbdce25fU, 0x8781063bec1efdd9U, 0x3aee103f0d1a81U, 0x7f38ffbef5fd1d03U,
  0xf3151f81d44a0101U, 0x8bf9ec5b9a0fbcf6U, 0xa62f7f58ea70da2cU, 0x50dcd3dbc507c2ffU,
  0xece1d137f0e0a01U, 0xeef1508c428ec04U, 0x24909f84fb71131U, 0xb24f2c7f12dabee4U,
  0xdeeb0f01143aed7dU, 0xc9cf04ca7f112532U, 0xe9031ef0f515f044U, 0x81d33c3b0f0a1223U,
  0xa75cc9faedc80900U, 0xfd81e7d5c8e3cd4cU, 0x29320a40d5a0cfc3U, 0x187f327437cdb3cdU,
  0xfaa00228faf6d572U, 0xbc9cf50b7f101bf0U, 0x2acea4ee7ff1fcf1U, 0xd9fe130bdafe2f13U,
  0x7f2cf321b710010bU, 0xf60e03f518faf30dU, 0x87f04213ff20c37U, 0x98f70def1aef14e4U,
  0xd047f41eddd2305U, 0xe24300843f1d6b9U, 0x91453f6d5f3e726U, 0x10ae7421054c5a7fU,
  0x147ff201bbae061eU, 0x32f632051cf8b805U, 0x21c5ebcdf620bdecU, 0xd0a69be8a511d081U,
  0xc81ef1fdabcf0ccU, 0xbd2e321401eac921U, 0x13d3d6ef7fd32114U, 0xd10c36ebf022ecf4U,
  0xf77ffeea372b1ef2U, 0xd049ecb5e8ee1300U, 0x43df8f881f601f9U, 0x19f400fb281e0adeU,
  0x235ef0181f80410U, 0x1af81b052effdee8U, 0x74a094698c2eceeU, 0xe2337f5e35ef2143U,
  0xd4d17fed5beaf4f8U, 0xff1fcef7e0ce14feU, 0x28b9c0087fc7041bU, 0xf915243fe9130b38U,
  0x7fff295f1f60e627U, 0x1412e7fe22bad158U, 0xe7cde6060a3d0a7fU, 0xb7b8b7c552e2f7caU,
  0x1a1210f103f3f116U, 0xf00f810418565efaU, 0xf61b0702201f39c5U, 0x7f31efc418eb1609U,
  0x2e4efb041ad093d8U, 0xb7d0036b8100ede6U, 0x62b1c231de03a21U, 0x7f16746bc32201aeU,
  0xfdd115f6f02710fcU, 0xedd8f31881001d05U, 0x8adb6520f04f05cU, 0xfbf6811407c9e284U,
  0xe3d781e74c001be8U, 0xe8d72c07e9150f22U, 0x131b25f7d32eeb1eU, 0x6a10e3781091fd2U,
  0xef3fea2242080de6U, 0x381310d47ff6ee10U, 0xc1f5814a5827d5d5U, 0xa44bfb303ccdf17aU,
  0x307e821c00ce8ebU, 0x28d77fe617c7e5e0U, 0xff29cefb81f606f8U, 0xf4142dfa4cf610e5U,
  0xc73c7f439231deb9U, 0xf4fedcd419a80506U, 0x7ffa151ef10efe09U, 0xd80005f01adec224U,
  0x464600007262U, 0x429800002298U, 0x1f0b00000c21U, 0x3c4000001e3U,
  0x2db5fffffd8eU, 0x357ffffffe0fU, 0x1c02ffffeca9U, 0x2a82fffff5f5U,
  0x106100001de5U, 0x26b80000219fU, 0x51e4fffff648U, 0x25380000522bU,
  0x209500001b80U, 0x60be000013a3U, 0xfffff6db0000183dU, 0xfffffcc9ffffff77U,
  0x18510000189cU, 0x2bcd0000056fU, 0x161b000005b5U, 0x1c8000008eccU,
  0xc0e000010a9U, 0xffffffeb000057e0U, 0xa8300000130U, 0xfffff2b400001d3bU,
  0x2fce0000192fU, 0x11c6ffffffe7U, 0x7bc00000719U, 0x2d4c00001d1dU,
  0x45100000d55U, 0x3b7efffff30bU, 0x68b70000363cU, 0x2abf00001a42U,
  0x16d7fffff1ccU, 0x2c51fffffeb1U, 0xc6d00001044U, 0x127b00000b26U,
  0xf8300001ed0U, 0x156b0000222fU, 0x19d900001c16U, 0x1b7200001289U,
  0x460c000016ceU, 0x1a440000023eU, 0x16a20000040cU, 0x1176000022c5U,
  0x138a000020eaU, 0x5b7000020aaU, 0x1f21fffffe9dU, 0xfffffc3d00000817U,
  0x52e34f577f1b41aU, 0x2901e51ffcf1281U, 0xc4f809245a2a32f5U, 0x2f2e101308586433U,
  0x2ced022acaac0becU, 0x181da079f428811cU, 0x6e05e502fbd68815U, 0xe7343e2bf49a4dd3U,
  0xd6fe93e70b81e619U, 0xd3ea2dff1600f1e0U, 0xe19352c7f7b3a8fbU, 0x1aab271203e1a82bU,
  0x330de4f42d7f7ff8U, 0xfe83326de4812133U, 0xd4a95d3277814006U, 0x3137284c017f1ccbU,
  0xdefae5362188810aU, 0x29e548cf0c93967fU, 0xaba1bd2bcb818104U, 0x7f5eeee6e8c87f7fU,
  0x21d78ff9d89c7fe4U, 0x818d81ebef05fda4U, 0x870877f5c886f632U, 0x3da19143064be5deU,
  0xf930e7ebebdbedf1U, 0xfbcd320f19ef174bU, 0x2e3c040befffef03U, 0x2f0d0a0cef11d9e7U,
  0xd318f94e13d3e9e7U, 0x1a25a386f81e4007U, 0xf718f3f506e912e8U, 0x1eecc3cef9a614d1U,
  0x43f9bee20eaf3532U, 0x1817f917fcfbf9dbU, 0xc65ceddf07df3007U, 0x41e402fffb37e3ecU,
  0x7f137fe63683266dU, 0x7f81151df9c0181eU, 0x816ff63932517f37U, 0x81363a165aa1197fU,
  0xea81ed108aa361f1U, 0x2429ecd71086cdecU, 0x75d28127ec83b607U, 0x927ffae5e4e64f9bU,
  0x81df81eee9a5940fU, 0x937f84a87f1f06f3U, 0x5b7f59711981fcb7U, 0x41857f201ce1817fU,
  0x4981957f8176ef81U, 0xd0b381e194be7fccU, 0x1f81817f814ddb7fU, 0xad7f7f81812281c7U,
  0x7fdca081fadc1a7fU, 0x81817f8181a5dea8U, 0x8181b67f7f105681U, 0xe0847f7f7f7f366cU,
  0x2a7fab8e81cec37fU, 0x6405e8db987f9c6eU, 0x5ef4d67f7fa47f81U, 0x97d7dd7f7f81d3adU,
  0x3714f9d6cc98000dU, 0xb6ac162c7fc61ffdU, 0x6ebe0708b6b6c810U, 0xa10709f82633e4d6U,
  0xfe7901157f89d7dbU, 0x321bbc0e2d7fe001U, 0xa0289b0bd8e55151U, 0x59d502e5c4a515b1U,
  0x38cac40aeea03cefU, 0x57b55a7fef14f893U, 0xdd918177f4badbeeU, 0x1d81d3fc090ba2deU,
  0xfb4810e6f80a3208U, 0x10b93107f9cd0f3fU, 0xe43eff06f7d4ee03U, 0x3b191e0b03c6cf17U,
  0xb2e70952dfdd0af6U, 0x2c0da48ef7103aedU, 0x75170202fed006ebU, 0x1af7c1d4f2890ad1U,
  0xe5f28f260cca1527U, 0x10cd01fb18fcfeb0U, 0x7fe00908edda3319U, 0x7fbdf00403348714U,
  0x271edecac77e93f4U, 0xf2bb0e7fe6ad29f3U, 0x2331261ac453920fU, 0x42e9f017f58a11f3U,
  0xff137f2611811ac8U, 0x39de4a0d0b2affdfU, 0x95b2d811d29c624cU, 0x97ccfbf2dd97de6fU,
  0xfdbbd37fe8b4c5e7U, 0x486f5ae6e5167f81U, 0x2003a1d3c7c0e225U, 0x409232070607c5ecU,
  0x933ecf12f0309fbU, 0xf8f512d41ef503aaU, 0x39fcf61029d0e403U, 0x2a0b0900f6e742f7U,
  0x1309041110ea09e1U, 0x6129869fe33e2f9U, 0xf0200af506081600U, 0x10f9312b009cf7f0U,
  0x302d60207f6ee17U, 0xef01171dfbfbfcbcU, 0x6170b0102eddcfcU, 0x15eff7f2ffefeff0U,
  0xfffffbe70000073aU, 0x34ffffbc4bU, 0x564fffffc57U, 0xffffd6df0000122aU,
  0xffffc83100006a76U, 0xfffffe430000235cU, 0xe2800000929U, 0xffffffc90000e332U,
  0x1a5ffffc701U, 0xfffffa750000071dU, 0x47afffff461U, 0xfffff603000004adU,
  0xfffffef0fffffd08U, 0xc7afffff569U, 0xfffff45c000001c3U, 0x4749ffffde2aU,
  0xffffff42fffff80cU, 0xc600004e1dU, 0xffffff310000137cU, 0x24200000a71U,
  0x969a000002d1U, 0x1df100000d69U, 0x29250000ad6cU, 0x391b0000096eU,
  0x79fffffeaaU, 0xfffffc0c00012856U, 0x4dc2ffffe968U, 0x28e500003dc6U,
  0xffffe3af000036e6U, 0x3d5e0000aea1U, 0xffffd38cffffd13bU, 0xffffefb700000181U,
  0x2740000056cU, 0x3e360000483cU, 0x5d0c000003ecU, 0xfffff79400005979U,
  0xf20000c829U, 0x14affffca32U, 0x6f5fffffe2aU, 0x26cfffffbaeU,
  0xffffd4f4000011fcU, 0xfffff6c6000063d6U, 0xfffffd91ffffdbcdU, 0xffffdd51ffffff6dU,
  0x32000000002cU, 0xffffe3c0fffffea7U, 0xffffffb2ffffd31aU, 0xfffff45f0000928cU,
  0xe6e5e2e0c9c06c0dU, 0x192308f4cd0d1cbcU, 0xfaf9e827c9feebc1U, 0xea124bb304c601ecU,
  0x3fc5d4db5e0e01dbU, 0xb0e3c0200f28c8U, 0xba070919509de725U, 0x1bfa357626de21ffU,
  0x1b5cdf0fe0fd07fU, 0xd91b14b6dd26e289U, 0xb2f01f39bdc6ac7U, 0x2c22dcef31f307e4U,
  0xef203bee03392112U, 0x21916ea31053ea8U, 0x3cffd02513f80d00U, 0x341a29cfef372528U,
  0x6f6f30d0c1a10f7U, 0xf221eac397e4c7e0U, 0x2d2bf77fd2d40effU, 0x1209100e9e01f89eU,
  0x40a117d834f7e92aU, 0xe5fe12292ccbdcffU, 0xc0c315cf5120cfaU, 0xf90f0ff2f22af921U,
  0xeaf4201e00df1515U, 0x3e9f2fd0ad69d81U, 0x15d2f2dee9c521ebU, 0x7ee12908dafa1f08U,
  0xfbca10d22cc7f5c7U, 0x22cd0a905d7e90dU, 0x1038e3e5ef530802U, 0xf2d9fe13370cf3abU,
  0x6ee151adff80b27U, 0x101a201313d61808U, 0x231cf01308032307U, 0x20c40edcfa1eeb2aU,
  0x411240fd33360e00U, 0x2c0b4adcd5f8e2e3U, 0x3bd9e433f6ee1afeU, 0xbe0403f023f106feU,
  0xcec444024034e715U, 0xeb0ea4e6c0ebe3fdU, 0x445704f9120219f6U, 0x1f7f0fd7f7afcddU,
  0xdb240a1232d3f7U, 0xd9e25158e24bd7d9U, 0xd0c29c41d4cfeedU, 0xeee6dfe905eb2e16U,
  0x841571c1d00e41aU, 0x1f14c6e72004b87fU, 0x2424fd1af61a27ffU, 0x94c5b5ca56dcd434U,
  0xdede1b30406e915U, 0x39d2434e3a4d2ed5U, 0xd6cad9971a0cdf11U, 0xe700c6ebde600723U,
  0x1612f9c7ec10e7a6U, 0x7f3f23e2809d727U, 0xc1d821ce020ef0d9U, 0x25b81c2918cd3824U,
  0xfb48f6adeefbf6f9U, 0x11058110071aeb0eU, 0xe21c0a32ec1cf100U, 0x105fffcf418f503U,
  0x2f0620dff8f90b0bU, 0x77020304fdedd015U, 0xfdf0340afa24ae03U, 0x18e51f03ea2e5ffbU,
  0xfe3e90f03fc2309U, 0xfa03f01b09f60b04U, 0x1a09f50709ebe908U, 0xbe113f1f616f5e5U,
  0xe0f60f0beb3ee7fbU, 0xf7c7df74f9e402fbU, 0xfb26ef13b5fb0af3U, 0xa9e80910d2eff810U,
  0xebbb0f0450e8211cU, 0x613e70ce0f7c32eU, 0x1a23000c4791ddd2U, 0xa15080dfe01fbeaU,
  0x207f0ef804e53127U, 0x12f3f20d27f5ffc2U, 0x18e9eafe33faec24U, 0xf4f21ff7431ec103U,
  0xf705e9000b14fcf9U, 0x2fa5025f4d9350fU, 0xfbfa0006fff846fcU, 0xf0dbf904f1fd05f6U,
  0xf41e1381e61109c2U, 0x1302fd0fd5120ffbU, 0x10f20810f1da10f6U, 0xc20de9161eee0fU,
  0xf7ccffe828bee708U, 0xf710feeefb06f6f0U, 0xfc030f140606f10dU, 0x7c14f2e42000f4deU,
  0xd10aff23811709feU, 0xd6e70bd103f3070eU, 0xc950efe0a524e210U, 0x1cb113e6f520c943U,
  0x3c36da122305695cU, 0xed02eb0cfcd19eccU, 0xe28e51df9f6b1cbU, 0x3ef1334d31fcfee2U,
  0x35e1c7e241d03b17U, 0xa21ebad2d214f6f6U, 0x39009711da14e21bU, 0x13e525d736200e21U,
  0xe8c8240ee0ece214U, 0xe044c195502f12bU, 0xfd2806cdd11ce20dU, 0xe118e4e326f1e031U,
  0xcb41af92beae6bdU, 0xdde8201b1b17df3aU, 0xdfe717b50420f6ecU, 0xbd5000a81efd702U,
  0x2324effbc50826ebU, 0xf316da6f6bd72df6U, 0xceef3e212d3e4e2U, 0x3261d01d1070349U,
  0x1518ce6da2eee7e2U, 0xd6dfdbf3f60dcd0dU, 0xb111224cb9f1b11dU, 0xca390d22e013e5e8U,
  0x1dff6514091b1ec8U, 0xf1fdfb1a11f4d77fU, 0xf8e9bb010602e4d6U, 0x36ba3a18cc75e72aU,
  0xf8d3ce040d44132aU, 0xb277e7e829fa25c2U, 0x3e04fdfb17d4dc27U, 0x4c63329d41bf4e4U,
  0x65f507f6fc1109f2U, 0xe00a0cb422f92cedU, 0x2ae5e8edff13e835U, 0xd917fff62bfde30cU,
  0xfeeb3df9120ee4d9U, 0xffcaa3ec01a6fe49U, 0xf4310c2dd50ef41fU, 0xf5e40e36dfd3e4e3U,
  0x287fe5de2eef24d5U, 0x1311fb2c363c1622U, 0x2bead60df72e15eaU, 0x16042945fce52f13U,
  0x2be2e9fbe7cbe1c2U, 0xc732fb320f05090bU, 0x3e1dd0b021bd52aU, 0x3b3af005da1be1e8U,
  0xdcf4f2fdf006ceb8U, 0xff11332c7c71002U, 0xe4de10ff0dffe4ffU, 0xebd70ddc7ff8f80cU,
  0xd0cfc06531a02dcU, 0xee09d90c0b510738U, 0xceb0f2bb638ccf4U, 0xf415f924e6e835f5U,
  0x12cce905fcfdf7efU, 0x601937f9d5f20a28U, 0xdb2f0afadf40c4a6U, 0x213cf108fe39df08U,
  0x4a0db307070213ccU, 0xe817fe00f1d681ddU, 0x5fa08f3f7eecd2aU, 0x49d1210e29c2e1d7U,
  0x28e4c8ffdf1545f9U, 0xc31aefdaa9e7e71aU, 0x2b10e8e21f30c0f9U, 0xff276e23f730ffecU,
  0xe2f909cae37d1c26U, 0xa7ba31e8f732f4fdU, 0x3193708e0cee81fU, 0xf6323dea33e9f4dbU,
  0x1f53d2b20819efc7U, 0x1120915603e08a4U, 0x3752150e2dcfdbb1U, 0xefa40932ffcf0df0U,
  0xa201ecaf644e540U, 0xebd8dfb7ba0ecaa0U, 0xf0fc17d4eb0b1db3U, 0x1bfcebc87f03f005U,
  0xc9e43c08d43d091dU, 0xe8e2d7d1080915f6U, 0xf7f5cc2ace09fbc8U, 0xca13f24f1ccff819U,
  0x18d8c8e87f00d9e7U, 0x241ec40810060beeU, 0x386021f6f7e002ebU, 0xfed7c91334fc16fcU,
  0xf1c603f1f00ad7d5U, 0xe4f519cf162fd3fdU, 0xe9de12bb48fcf8d1U, 0x1927d52af107ec1fU,
  0xa6550000b1f6U, 0xfffff3d500000076U, 0xffffe6c9ffffaab1U, 0x111e0000578cU,
  0x6d80000269bU, 0xfffff9720000423dU, 0x1c36ffffa2b6U, 0x4fee0000140aU,
  0xfe55138137963024U, 0x37f1c5d8f5050ffbU, 0xf4d7f0f47f25d7fbU, 0x13e4d719bc0b1f2bU,
  0x6d50e08fc051481U, 0xabb7f6ea72193bdaU, 0xf4f4fed5fc0ea6dcU, 0x1e5ef070c815e18U,
  0x221981e7edf40ff1U, 0x16e42b26072123edU, 0x2ede807362fbec1U, 0x7f915de3f200e6e6U,
  0xf2810806aee2ead5U, 0xb4b8ea6b1e1af4f8U, 0xf5a8f25a10c881feU, 0x70b32e4bb1016eaU,
  0xf0d20b3bfdcbbac8U, 0xcfa30e7f58f524d8U, 0xd80a2f100236e721U, 0xf4fa53352b2d3a7fU,
  0xfa07efff25111813U, 0xf61318eb7ffff204U, 0xbf37231091fceffaU, 0x7faef809e40d0ddeU,
  0x1bfd10a09280a4aU, 0x3e0afdcf4d0dd81U, 0xec3a0a078103ef0dU, 0xe61ce708470cda0bU,
  0x7ff79502ff21dd05U, 0xf8ed2e1f15d53d11U, 0xe50e021a3afd02ecU, 0x1ec14037ff0f1f4U,
  0xeedbf1042909d543U, 0x29e200e57ffef00aU, 0x4ff3007f09f827U, 0x1de11e8c3e907f5U,
  0x5e1dc001919f921U, 0x3c6baf1ecc8d081U, 0xb8311308415b080bU, 0x7f043dfb56083678U,
  0xb317fa3e3816f949U, 0x58138b1bdde4ae1U, 0x2c916117f04def3U, 0xe0b9edcdc3e1ec4eU,
  0xf21904d4ea38f8fbU, 0xc6dffc0381fc07f4U, 0xd7ffbf527f6ecefU, 0x2c2af62124f4da03U,
  0xebe211a7fe4f0deU, 0xfed601fbce0d12fbU, 0xea1401d1d55bea15U, 0x97c6e9178102fffaU,
  0x681f6fea60409deU, 0xcb370fa33afafb0aU, 0xddb3ef4e2ddf3562U, 0x4b24007f2bd81f1dU,
  0x1d51cbbe3ba0f30aU, 0xc4eef26c81f5ef0eU, 0xdb811104cbd82ab2U, 0x95445a9320ddc5e9U,
  0xe9f6fde92526cb74U, 0x49d1f3dd7f15dd0bU, 0x159f6013926e50bU, 0x6498c17fe8092e11U,
  0x24e58109f0f2ffecU, 0xdc030ef01432131dU, 0x1f1ffdb806f481e7U, 0xcadff85b0a33b5f3U,
  0xe7fec312c9e48771U, 0x7e4823379bfc8135U, 0xdee8ed32180d17f4U, 0x7f1b038c20f41d19U,
  0x1079f8ec3afdea81U, 0x335afafa390ad804U, 0xeddc0209fd20aef1U, 0x1436b10a7f28141cU,
  0xad75d08c9e42dU, 0x2a43057ffed3e924U, 0xd1f9db1f24231af1U, 0x7f4603941eeb1c19U,
  0xd74bf5ea123db54aU, 0x1459fc81c10a1604U, 0xad2781bb8eeffdd9U, 0xadd530b36ba4addU,
  0xec28e72081e0f801U, 0xff956e720dcdfd4U, 0x7fd6332b281eedf3U, 0xfaece43b13fbf220U,
  0xf02510a5005e7f01U, 0xe819ed294df4d00dU, 0x2c127f3b13020d15U, 0x1bf8dffdeb1cccefU,
  0xce8c3af6cc7aede0U, 0xd00810c2068d0U, 0xc204ba18617f1a11U, 0x7e049ebd2fa6e9aaU,
  0xda33e330ee2aa47fU, 0x372bfe01e2fa0c0eU, 0xee1c1ac3d370ccdfU, 0x81d0ff388c0ff0e4U,
  0xefff150bed21f8e2U, 0x102f281d41940ebU, 0xf501fd170dfe03f6U, 0xf3c4257f2fd3d403U,
  0xfe128109f416e6f4U, 0xe8d70bf2f8060c34U, 0xf438e11f81fceb10U, 0xe0a500214c4d9e9U,
  0xe3d181bcfc02dfd9U, 0xf8eb300c12bf410fU, 0xe3c8203f097f4f13U, 0x22ebe38f22f770fdU,
  0xfd2604ffd31802f8U, 0xe31df82681fe11fbU, 0xdb368421c8f1f4caU, 0xb584dbb20b05d57fU,
  0xe54448eff21efee9U, 0x5f05e22e736397fU, 0xf71df900f608f881U, 0x82d0804bef80403U,
  0xeaa30222d407037fU, 0xa2ac0c19e6f02af9U, 0x710ee51fadd81ecU, 0x4ecf20d9a6193ddeU,
  0x211c2ca6d246cbe7U, 0x96c402e1812dfcd9U, 0xbfb32c5dc04c6fcU, 0x15fce8edff813016U,
  0x9f643b2f8124d8e9U, 0xffc4f5e915dcc40eU, 0x8df881dc07c4fae1U, 0xda920cd5e4ec0736U,
  0xf2fb4ef2d5140644U, 0x2e565fd184e527fU, 0xea18142804311dd1U, 0x7b3b30016167ff0U,
  0xbdebe460241e7f05U, 0x6f5cfc0c3aa41c44U, 0xc544eed28123d610U, 0x43cb94db08366205U,
  0x7f9fdc8f0f48118U, 0xfd31ec440720ae09U, 0xf281ff00b80509daU, 0x3fdb040bf70b0809U,
  0xf7fafe7808d8609cU, 0xadb6f87fd1e454f2U, 0xf3f21cc70510c7e6U, 0xaafd1c7ffd02f1ccU,
  0xffedef48e7cd8108U, 0x38f0fbedc4193ff5U, 0xe9850408d60f05aeU, 0x479af57f6b1123efU,
  0xae0e81e307c803dcU, 0x39b0ae5fbe20b3aU, 0x2e1a519fe029b5b9U, 0xa4840181b96fe7c2U,
  0xe4c0f8271ad4ad1bU, 0x270838af811005f4U, 0xe97707210d0ade3bU, 0x538107dc880a01e6U,
  0xdbd0ae33235ef33fU, 0xecee950f16b1dd81U, 0x35e88114110417fbU, 0xe7eef4e4fe6c0d26U,
  0x8a2f8fe810510e2U, 0xe81e04cc3af9fb04U, 0xbee41f1f1c4e64bU, 0xdfee6e244333fc7fU,
  0x2350a0617f8fcf3U, 0x810103320de807efU, 0x8be95d7f1d4ca4daU, 0x1ceeb1ef02bcfefU,
  0xfb3c5fdbea5539d4U, 0xf8c97385c157677fU, 0x81e4e4d830d006efU, 0xeee3f913fe030cf9U,
  0xbb61bae8813dd61dU, 0x62a8fae6e3464fc9U, 0xf07fea353913df39U, 0xb5db30f5f9f202e7U,
  0xfc25ef4b818ec1faU, 0xe7329f23752b2f02U, 0xf3ddde180d06dd1fU, 0xd14b7f11ffcf8704U,
  0xded823196004e7f3U, 0x3211555cdd352781U, 0xf9c708e77f530efdU, 0xf5da40e9c4e8e505U,
  0xf66d0b194afeb306U, 0x811f001622ff48c6U, 0x5f41f5128110ecfeU, 0xaec27e02cdce004U,
  0xfffffe3400002d52U, 0xfffffcccfffff781U, 0x204700001502U, 0xffffe05200003c52U,
  0xffffef52fffff2feU, 0x143300002637U, 0x1f59000003f7U, 0xfffffa5bffffff31U,
  0x2112fffff747U, 0xcc20000120aU, 0x12d60000335eU, 0x2790000017f4U,
  0x2a12fffff60dU, 0x28dc00002a8dU, 0x45100016d95U, 0x5d300000519U,
  0x805fffff316U, 0x121400000cbbU, 0x31f300000b2dU, 0x361fffff6f7U,
  0x1c5000000571U, 0xfffff4dc00000697U, 0xc1800000334U, 0x1611ffffea31U,
  0xfffff4d800000581U, 0x2ac0000062aU, 0xfffff7a6000006ebU, 0x2abfffff6e6U,
  0x126600000de0U, 0xffffff85000015feU, 0xcc4fffffc85U, 0x171100000effU,
  0xe4c000018e6U, 0x960000003e1U, 0x17a5000005a6U, 0xffffff17fffff29bU,
  0x31f9000007a7U, 0xfffffba5fffffda1U, 0x381c000017a8U, 0x3cb7fffff739U,
  0x1b7dffffee6bU, 0x214c0000251fU, 0xfffff7e7fffff933U, 0xffffffc800002548U,
  0x13bcfffff74dU, 0xfffff5f8ffffe5efU, 0xfffffa9800000286U, 0xbfbfffff9dbU,
  0x586749a64d4541baU, 0x54a058a9635a5457U, 0x5b81458889927f4dU, 0x57b34050b2607f3fU,
  0xa9b1bbb58150a16dU, 0x324ea82fae91c442U, 0xbb536381c43137b1U, 0xb2b9aa495a0cb0a4U,
  0x4e3eb94383b37743U, 0x5099998bb2c19bccU, 0x4604b4659f619645U, 0xae63244843514ebfU,
  0x6cd15a81616659a6U, 0x71907fa4bcc8656cU, 0x7f926581ecabda68U, 0x679b55aa95cf7458U,
  0x929caba28461977fU, 0xa667a353958bb35cU, 0x975c6b88ae4d439bU, 0xa2c1865a686da9a0U,
  0x665ca763819a7f5fU, 0x7f9293329ba201acU, 0x4b939e73ac7f8752U, 0x9e6f43636068629cU,
  0x36de24b126292be0U, 0x2dd634d4cee0182aU, 0x31b534c033f4d027U, 0x2bd120ebacd04828U,
  0xcad7e9d8a31fdd3cU, 0x9829d929bdcbd422U, 0xc7292198e02021d0U, 0xf4eac527215bdcdeU,
  0x323bcc35b2d22930U, 0x4abeea2dc3d62dd6U, 0x258ac52de831d61fU, 0xd634283c2c222bd0U,
  0x6d7f6331685b649dU, 0x6490e1b07f7f5a63U, 0xb43a5720b4ae7d5cU, 0x6ba45978157fc66aU,
  0x9997999c8d6d9274U, 0x7f6c97488b8b9859U, 0x94717391a5486e98U, 0x8f86846474688d87U,
  0x6c55995b86a4bd5cU, 0xc7838f819da9b4abU, 0x7f81877cb6d78c4eU, 0x9d724d61646860aeU,
  0x7fbc7f347f7f7f81U, 0x7f81d981beb77f7fU, 0xa3187f324b81b47fU, 0x7f817f812bb8db7fU,
  0x81818181a87f817eU, 0xf37f817f8181817fU, 0x817f7fa5817f7f81U, 0x8181817f7f7f8181U,
  0x7f7f817f94819e7fU, 0xca81814281817581U, 0x7d83817f81d8817fU, 0x817f7f7f7f7f7f81U,
  0x40be300e322f3bd2U, 0x32cbebb7c5cb3431U, 0xd0273f137fa2af2bU, 0x31b3320813c6d03fU,
  0xc0c9dccf9825d336U, 0xb136c540b6d0b731U, 0x8f342ca3c93532c1U, 0xe6d2b5342c1cccd3U,
  0x3654bc4a87bad03eU, 0xf3aad246a5c77fc6U, 0x32d7bf32bcebde2fU, 0xc73d464b3c2933c0U,
  0x373d2c3233293dd3U, 0x2dc8bcde454a1e22U, 0xed5d282ef4e72a1fU, 0x2bc525395331b038U,
  0xd6d9ced6c72acb31U, 0x5331d422c0dac823U, 0xa73525aecf192bd0U, 0xe5acc22f3354cbceU,
  0x432fc81ab5dedd2cU, 0xa3c196c4bfe0e4dfU, 0x3d95b42bedb6e027U, 0xd62b3136292428e6U,
  0x3dca354c47374ac7U, 0x3ac39fc1e2d5392dU, 0xec5b3a3c4ba9e12cU, 0x33b237c07fdcd03dU,
  0xc5cfc5cfb62fc133U, 0xa36c43fbcd5c82cU, 0x854028aabc352dc5U, 0xe2a1a5373b29c2c9U,
  0x4940b725adbeae3aU, 0xa1ba83169acc3ec5U, 0x3ee1b32dc6b1e03eU, 0xca395141312a33d1U,
  0x19df18321f1423eaU, 0x16e7cfecdbd81e12U, 0xf52c212244cee707U, 0x15d0190735f0cb19U,
  0xeee7f1eae10ae518U, 0xe316e220d4eddb11U, 0xbb1e11c6e41710f0U, 0x8dddd1810fee9edU,
  0x2226eb19c2e3d81cU, 0xddddf61ecae83fe1U, 0x18ffdc0dd5e20012U, 0xea182729190918e2U,
  0x57e10001a775U, 0x477fffffdf2U, 0xffffff26fffffedeU, 0x4fffff957U,
  0x20c000005a1U, 0xffffff78fffff770U, 0x73830000d23bU, 0x12b400006affU,
  0x28f000000a0U, 0x94220000b3e7U, 0x1ec200000480U, 0xfffffec40000075fU,
  0xfffff0de000022ddU, 0xffffdb08fffffd44U, 0xfffff62200000761U, 0x27a600011b0dU,
  0x233d8ffffff9bU, 0x715effffffb1U, 0x1d11a0002cfe9U, 0xbc9e0000d2cdU,
  0x149290000070cU, 0x1389b0000a7daU, 0x169c200001b6cU, 0xe1ad000011a8U,
  0x52600007766U, 0xe74400000715U, 0x1a730000e715U, 0x93d700000181U,
  0x1243b0002d73cU, 0xfffff51f00001c7eU, 0x8e1000000598U, 0xc93200012961U,
  0xdbffffef86U, 0xc7950000f74cU, 0xa0edfffffc7eU, 0x4e9fffff1b2U,
  0xffffcf880001197dU, 0x69ae0000bd77U, 0x1451afffffc2aU, 0x1c3200005380U,
  0xe49d00000320U, 0x37f4300000363U, 0x13af900001496U, 0x16600008463U,
  0x86000010131U, 0x142a00000059U, 0x416000004cbcU, 0x1691d00002638U,
  0x8fed20a0f3ac3f8U, 0xef7e5320effd512U, 0xfe068cf8f30a03beU, 0x1b1ff508030c0403U,
  0xfc2dd2b6fac6f203U, 0xfaf9fc13e3fcf1e2U, 0x7f711010e0d0615U, 0xf0dff59e380adbffU,
  0xeaf7e8f0f633087fU, 0x120a0304dd1003d3U, 0xfd0ffdfd10141debU, 0xd02c02ecc9032605U,
  0x5af386f9d405e2d2U, 0x1fe913d61934fc40U, 0x3fc8b0084ecbffa0U, 0xe51f1d58dd1c19e1U,
  0xe98126fec5a61c00U, 0x23694311e5cce9b8U, 0x942118e237f4c2e5U, 0xc2f2eabddaf3ee1bU,
  0x1339f5f7d6ff138fU, 0xc1dce5340d97cd35U, 0x51f444472608f153U, 0x91e6737f27a521eU,
  0xe74f151b1cdd181fU, 0x89dcd21213ea2a19U, 0xfb591d36f8d9321cU, 0x2be67ce7ff0cbd54U,
  0xcf3c6e2152cbbaeU, 0xa7ee07338afcd00bU, 0xcd2f05f80bfaf6f0U, 0xff1c040568d20bffU,
  0xac40c1fff1a00deU, 0xee16f20a117fb9d2U, 0xd8ed0d829347542bU, 0xde0fb81c2ec308f1U,
  0xc1f3e6ecf7b7bfcfU, 0x11ff24eff0ef4d1fU, 0xa11f3ffff14d106U, 0xeb10b5fe10d3e9e8U,
  0xcac0e2e5ef05e3e9U, 0xe140f2ddfeff0ecdU, 0xd9ef12ffce10390bU, 0xe5b328ed1b25e2eaU,
  0xf41fdbfefac80624U, 0xd529e8f32011f254U, 0x4ce91104e4dc1b06U, 0x1ccd0adf260e81f7U,
  0xd0f03a161cf838c7U, 0x1303e41204db6316U, 0xf2f3db25062afbe2U, 0x11240cfe27040d33U,
  0xf72474ea0aa9ced8U, 0x190877b62102d7fbU, 0x75d0de6ee6b321eU, 0xffe60edb1a33350dU,
  0xc5fee829e6d20f81U, 0xe0cfb0cf21f19f9U, 0xed20d1ec2101ae9U, 0xf7fbd9300ad020c6U,
  0x3afaf7e6c9f5da8fU, 0xf319ec23101ceaf6U, 0xe926eb0eb9f6f60dU, 0xe813e0fbfcebc37fU,
  0x727501904f2eee4U, 0xc5f7081eec1630dbU, 0x9d70affcc390829U, 0x101f107ddf0cc55U,
  0xdbf3c3ee1b22ff01U, 0x1abdf207f5d519f6U, 0xfa14400debe2f5f7U, 0x5dabf1635dce9a9U,
  0x201af8f3c025e02bU, 0xea330230273910f4U, 0x621b1d0f13b0f3aU, 0x13d0c629e113de0eU,
  0xddf63511ddfc7ffcU, 0xdff717492f17fa2bU, 0x60ddc0c17afb2f7U, 0x141c1a334f4e05bdU,
  0x31fc1779ede4f942U, 0x8f12d22eb49f3c3U, 0xf9dee63309f6f1bdU, 0x64031f30d90a02fbU,
  0x1df5bef3e3f22a51U, 0x6fa7ffc361bf3e7U, 0xf2fe11e1e92330f4U, 0x312dfb120032e71bU,
  0x1e0411f212d8ed13U, 0xfd15f92110f2e8e6U, 0x1d1327e3fcced6f4U, 0xcc211903e7c92ae6U,
  0xc1423e5e8ef0623U, 0xcf00e100dff1c7dU, 0x1e14e0ecee1ef3c3U, 0x100041f03e00ef2U,
  0x404f1f40f0011a9U, 0x47fe10ec161011cfU, 0xe162f0e01101a3eU, 0xabd64005f40ffbf1U,
  0xcd0c17c8d1114d06U, 0xede6c1ff18ecfe7fU, 0xafbf41576360dddU, 0xe8ecfe1c15f108daU,
  0x210cf6f80ad00318U, 0x13f3ee010af9e94dU, 0xcbe8f11d34070607U, 0xd7e802fb021a09e2U,
  0xbfeaf2f3131435faU, 0x9080af0f8e403f6U, 0xed39edd88ef904e6U, 0x110820f4f107adb8U,
  0xfff6e94103ec03ffU, 0x81ff21ac07d2ea08U, 0xf1120c1003f4daedU, 0xfffe06e4fd1c25f9U,
  0x7070a21f909fcdaU, 0x132b04fd0ec5fc0cU, 0xfb1015ecf5e91312U, 0xf51034edfa191912U,
  0xf5feecf9f80f17ebU, 0x8ec01f900030509U, 0x3031dfbfffefefcU, 0x2405f609ff030014U,
  0xfc0100ff01dffdf3U, 0xf80accf4f42416edU, 0xf0bbdb25fa0c0a0eU, 0xedf103f711ff7f09U,
  0xfa000210f202ec0aU, 0x109fee8040301feU, 0xea010c010c061f1bU, 0xe50e071afd05ef11U,
  0xf000cff80649e5f2U, 0x4f11f7d6e5fd12feU, 0xf8f80cf4fd07054dU, 0x90dc37f801f50800U,
  0x3198716038805ffU, 0xfc0e2500070304U, 0x916d614def1e215U, 0xc113644f7f7e77fU,
  0xf2f208eb06d00bf4U, 0x40e0906dd6315feU, 0x2b01001cfff31afeU, 0x61f0ddef60afb29U,
  0x1905e2f1092813efU, 0x18e00a2cfc13eeeeU, 0x90521eb0528060eU, 0x903f0fcf1000a09U,
  0x714ece8042612fdU, 0xffe44227f51efb18U, 0x1a0cf1f617c603ebU, 0xdf00fb151a3214e3U,
  0x19040cd41a06f997U, 0xfff30bf400fcf2fcU, 0xcd0537fd0601ffc2U, 0x810d11dbe518d30cU,
  0x3c0e4de31cd5aa3dU, 0x2f60a13e505d13bU, 0xf8122d04f4feddd4U, 0xa00781f4e8c8ff05U,
  0xd80d251cf2f431c5U, 0xf108380ff41dde29U, 0x1021d2e1ae050ed1U, 0xc9e6f4eed6ea3fe7U,
  0xa0d90ae1fa14fbfeU, 0xd9d3f1f9f20ff510U, 0xf609081e0fc72adeU, 0xf3e709f1f5ef4a1dU,
  0xa0369f8fbf6f929U, 0xfb0e062304f6ea0aU, 0x2edf20001f904d8U, 0xb42b26f906fc0afdU,
  0xf2fce5e9f3f80dedU, 0xa1207ed03d405f6U, 0xf504120b022eea04U, 0xfc0ef5bff5e90e17U,
  0x2cf40101ff2ffeeaU, 0xf5eefe00e7d800fcU, 0x40201e5def70eedU, 0x15dcfe1e0b008110U,
  0x5f781030af5f82dU, 0xf40e0001ff0106eeU, 0x3031c02f50006e0U, 0xa92e3bff0b03fefeU,
  0xd0025180bebe708U, 0xb0aebeffbecfd0dU, 0xf4f80817fc1a21feU, 0xfeea0afa080b13cbU,
  0x81301f2060603ffU, 0x6f6f3ff00f008ffU, 0x10fcf51bfafd0500U, 0x14f601031c03f000U,
  0x32eb55309f250c77U, 0x42eb0718f50c19f3U, 0x142dd300d525edecU, 0xe8090ef4e1f4ececU,
  0x1a34adc8fe00d347U, 0xac0cb03822063fe9U, 0x201c2e01fff431aU, 0x3b9deee12451c8efU,
  0x1d202f81fde202cfU, 0x8f3bfea00e4f12fU, 0xf6e5b814071a92d6U, 0x4a1f1d56f1196234U,
  0x27e2810b1ebebd65U, 0xf1ebdfee14141ed9U, 0xfbf8ce01f5f7f911U, 0xe09cc0e1305fb3aU,
  0xebda81fff3f0f514U, 0x91a08140c4de7e9U, 0xea32d7e5f75af31aU, 0x912e5fd08f5fffaU,
  0xfc0ab92cd6f1f1d4U, 0xe9fb09f901d21317U, 0xcdf4fe0409fbd91aU, 0xdefd8d3222cdf8aaU,
  0xdcef1cfdead91551U, 0xf0ae19fb01f8410eU, 0xfaf452f4f907e7ebU, 0xf918f62613fee3f8U,
  0xd7c47e29dec30922U, 0x44dafd8d3ef22b2U, 0xbdeb23eede62c315U, 0x19fe10cef605c21fU,
  0xd60b116cdae0f3dcU, 0x70907111e0610f9U, 0xdbdaf146dddfc110U, 0x81dc05e31dfff22aU,
  0x1202b34fd0f00339U, 0xe4d898f82c0e140cU, 0x3cff1d01d0ed62feU, 0x7e8030f26401fd6U,
  0x7ebf7ae07e02b0cU, 0xf81ef406d3e21136U, 0xad320f2d5ab06c9U, 0xd22013caf5cb09eaU,
  0x17f902e5e00525d3U, 0x7ff5d414be3d410eU, 0x51f3f4e0c36bef02U, 0xf7fc2c38cd0afce4U,
  0x4cfdd00d35190a03U, 0xeb0fe43d190f401aU, 0x6ea390a161e12cdU, 0x20021f08f0110a04U,
  0x2bfbc3370fe21607U, 0x25f9d3f7cc1b03fbU, 0xfdebc40f1e0dd1efU, 0xc231c5f19b5ae726U,
  0x18e9ede2ebe20f6cU, 0xf7def708e288f4f7U, 0x35beefd4921d3381U, 0x1715fcd6e7170cffU,
  0x6f70ef4fad5bcf6U, 0xfffbf806f5f049e4U, 0xf6d981162715ff0bU, 0xccf12def12ff09ddU,
  0xbe8e004fd33cee8U, 0x2df4ddf90aabfbecU, 0x2e76c21ee08ee07U, 0x3c17fd06c739763eU,
  0xd50f0cef33d4dd00U, 0xfdfd0cde14f2fb0dU, 0xbfe207f8b705f7d5U, 0xe9f8f45534f37520U,
  0xd455b314d1082cf1U, 0xe4f6561b01e0dc46U, 0xde0cc90940f819e0U, 0xe5e601d8e7e004e5U,
  0xee38e00c02ee0c25U, 0x6cdeec2f0f4447fU, 0x15c2fbf2f50de9deU, 0xe2809d5cfede2deU,
  0xd2bbcede000ef4f0U, 0xfc1ffceee40dc8e8U, 0xdcf70fe3e4fac9c3U, 0x25c73006da18f19fU,
  0x3fe3206e73e0017U, 0xe5e5c40bfc0c35U, 0x614b00502ecfb39U, 0x10c6effdedf700ffU,
  0x2c3530751feb04e9U, 0xf4eb1af91104fd01U, 0xfe1feaf325fc2e06U, 0xffe9017fc00419f1U,
  0x63eff4bfeec1002fU, 0x19f6dbf5ca03f204U, 0xc9f9090c15fd0b10U, 0xbbf90e29c107bae9U,
  0x3e4a0000a2deU, 0xfaae000080e6U, 0xa15bffff9d3aU, 0xffff7d49fffeeab4U,
  0x5172fffff060U, 0xffff9a72ffffba15U, 0xffff746300000fecU, 0x2feb00000817U,
  0x1145100001f95U, 0xb5f700007358U, 0xffffdc890000662dU, 0xffff809a00008c74U,
  0x2807bf4ca92720cdU, 0xe310ab4add8133ecU, 0xfcfe049f0023451cU, 0x7f281beffce5da2cU,
  0xbc021b0fe2214833U, 0xb60216f21c25f9c3U, 0xf13fb96a63efd8a5U, 0xffcb1eec57dc0b31U,
  0x552c5b7f3f32ff13U, 0xd602facc38e7cdc5U, 0xd34ebf00de30281U, 0x2a15fdfcdeff2c12U,
  0xda10ed27e9031be2U, 0x1232505d07f26e2U, 0x4d0066f317bd13f9U, 0x454419f1e77f3d19U,
  0xb21229f943e4dc10U, 0xd02fd16de021b1aU, 0x522fdd2eed28d181U, 0xebf847dffa10d92bU,
  0xf9f6cfc13920b629U, 0x81290ee9f397cff4U, 0xbaef0904d7041be1U, 0xe7020501070511d5U,
  0xa40533ed2203d707U, 0xf7d9f4f901fe6d1bU, 0xf7e4eef67f0cfc1bU, 0x8df1e30eecdd3322U,
  0xd2d705f09c09397fU, 0xddecf13c03e8f131U, 0x5ffa5f6da2152b93U, 0xea059ad5816e0243U,
  0xf8ed2de8d7158c0aU, 0xd781f2c8df332e05U, 0xad20f9f251adf16U, 0x53e394993f0315e7U,
  0x310eee3e2839fa01U, 0x8d8fff62edddf21U, 0x33ec0a7f1735221bU, 0x10f071109f311f6U,
  0x4fe05ed1981faf3U, 0xe0fcccf6e2e0f10fU, 0xdfdbf438d4e7efdaU, 0x11e5fbe3afd6e61cU,
  0x2dffc3227f37df00U, 0x3beee9295621230eU, 0x50f91720dc0d813aU, 0x5b08b6e004f8fe24U,
  0x311a017f0bbfee61U, 0xc7f51d8c3813d28fU, 0x71e08f086e7222f6U, 0x4d091c3ed0cc02b4U,
  0x81cfe7cf9a302b29U, 0xcfedca425043d8d8U, 0x284ef8735b20f245U, 0x4ed30bb40a2fd531U,
  0xe3e486810a6640f4U, 0x1e1af916e70e1706U, 0x101f2105007f13fcU, 0x260568e720d124f0U,
  0x9538e219cebfdd51U, 0xe954e23185f8b27fU, 0xad21e2f602d6a8e3U, 0x15f812e15f2d130U,
  0x8c506bb4d326eef4U, 0x4807629c97886677U, 0x27adfecff423fb1dU, 0xd4d6067fe7340502U,
  0x33fbc02b2d7f08e5U, 0xdfe4babfbc7fede6U, 0x20eaf438f1c5eb4dU, 0xef9ff216aed2e1dU,
  0x7fe71641c62604c2U, 0xe6e80defc502ef36U, 0xf8dce004e81fbb0cU, 0xecbbc781d12dc1f0U,
  0x8cafd62ea290d40U, 0xfd18e32bf361fd2fU, 0x1b51d2f8085e2b1bU, 0x6d3fae52214ea84U,
  0x201f1fe7ffa13edU, 0xd7eff61e07f9fdf7U, 0xefec04ff0f810be9U, 0xe9eebcffea080418U,
  0xe31907951812b725U, 0x19e7de81089edd13U, 0xd7f7e736fa1b0b3eU, 0xe507b316ec0b25ffU,
  0xfa0bea0702124815U, 0x7dee34af681f6dbU, 0xd30817fe09d20691U, 0xeaccf4f55a0bf512U,
  0x7fea410dfd1e05d5U, 0x6b631524c33d35fcU, 0x521d81e330f61b45U, 0xaa02b91b5b4221b2U,
  0xbb3a010e4416e905U, 0xf0fd344801cf2181U, 0x96225917311bf229U, 0xcd0b1710f7d90ffeU,
  0xa28126dcac1302d7U, 0xa52e2ff739e1d403U, 0x7fe8acfa22226116U, 0xdb875dde010f0008U,
  0x91d6370c6ce72a27U, 0x361ffff817240af7U, 0xed1aedf11d152e14U, 0x11dce7f87f000c39U,
  0x13bcefd2fa3e1c27U, 0x2af1435e32ce0110U, 0x1e0719ee577ff9e9U, 0x7f013d57ca2e24b6U,
  0xc4fc07f5c849da47U, 0xcec3bd1d93119aeeU, 0xd3472f1809992037U, 0x368157e44b1bf1d5U,
  0xdc2a0cc30636ed18U, 0x5fe7e5cff91f30cbU, 0xa5e0049229031352U, 0x32eed5d47f4343dfU,
  0xcbce0146e921f7d4U, 0xe9d3e1ed8d17d51cU, 0x3ae1bc2d7ff9dcfcU, 0x7fff1fea17feef7cU,
  0x1a21b8edf8dfed51U, 0x5d0050ebf027dbbcU, 0x2eff3e5dfc085701U, 0xce173a5bfc811decU,
  0x2309efdb0ff3fcffU, 0xa6f20234c6eb19e4U, 0xe101ff153bb2f2d5U, 0x57e0d6f4811611f0U,
  0xd3cee1d50cf6d8e4U, 0x7ffedd151c250d9dU, 0xe90c29e5b2d8befeU, 0xa14f81aee2b05f5U,
  0x1c3d1c20047f1af4U, 0x1bf15ed9ead7f8d8U, 0x7a60f917e7f40d15U, 0x64616f76924fe7fU,
  0xeae8e2ef251c360dU, 0xc13dd980300a5f3U, 0x2d06d981e020cf26U, 0xe2fcfc2eea3fcb49U,
  0xfff301cdf8fcf7e9U, 0xdf2f3f2eb7fe719U, 0xf7112020260ffe17U, 0xcedf075cb2130681U,
  0xe604180ae02df103U, 0xcce609e603b00eU, 0x7f9a1d98cbcf3aaeU, 0x1ae1edcf4d0439ceU,
  0x3010172115f410ebU, 0xb7d22f974c21e514U, 0x11de0ada1d81bf1dU, 0xbdd28f673055d5f8U,
  0x7f5026dc03feedd9U, 0xbd28e82915f151ebU, 0xaa183a63c83118edU, 0xd30ff5e04a0ffcfaU,
  0xb57ff31c10faf9deU, 0x74fdab135108edebU, 0xff015244d1e11d81U, 0xc5f6d94a05ffdda4U,
  0xd64cc9a34b43135eU, 0x8e287fea14c6dcc3U, 0x3401e04bec34bd1dU, 0xb70b6b9c78dea4c4U,
  0xd5814074bb6ce4abU, 0xae57ce82416024abU, 0xd0bcc330dd2fbd43U, 0xba0cf5e8d70c3eedU,
  0xae14f5fde1ec891aU, 0xfaf30b1d81f5f6f6U, 0xebc506fb232ce231U, 0x6cc0ff5fdd1d527U,
  0x310ff9177fd6191bU, 0x7f1e32f7fef82809U, 0x69dbc1f715ff2f3dU, 0x40e09f0330e8df33U,
  0x830cde29182ae404U, 0x7fcd0c0eccfadd0eU, 0x59e0d1d532ecf813U, 0xb7cef1e2420e2221U,
  0x7fff244542dcffbeU, 0xe2fd2ae008b62a52U, 0x51e8e7fafdbc19ebU, 0xe1dee2f1f3fcf381U,
  0xe5fb24ffdf15fef8U, 0x3dc2149fd40a0fdcU, 0xe6e30add38130209U, 0x120cd581afed0bcdU,
  0x45ed58fa1ff0060eU, 0xf1f10037f0e4dbeU, 0xa94907fcd25115e7U, 0x3d144b0d1da6357fU,
  0xd2ffad3fde021af5U, 0x684c41c7ebf11cb6U, 0xa20314b74021d4c7U, 0xb87fbd29fefd14aaU,
  0x6ff5f7fe29f1e5ecU, 0x2e0f0f15e70e0422U, 0x3d3b19fe7fffe0c1U, 0x1407e2f0e029dc17U,
  0x7fe806e2ffd0fdb5U, 0x10dce81a41ed16cfU, 0x6055e7cf40ffd02U, 0xc2dcfa3ae4efef81U,
  0x19fef71f1e410cdaU, 0xbd0e831039ff1544U, 0x7020266ed1f39f3U, 0xdff61b1209810ce8U,
  0x1dadceec9cb19e6U, 0x9840d21b278c5ad9U, 0x2bfeebfe7ff2edf1U, 0x3def00e140e7eefeU,
  0x464edceaea2016d0U, 0x7fbb05f6a5fd11a4U, 0x391be802152c0fcdU, 0xbff9197f1510d908U,
  0x67dcdc5ce8e4d713U, 0xcd45451b3f0d64fU, 0x3e9142dfbfe1bf3U, 0xefedeb16f38102fbU,
  0xf906e5e7fbf51409U, 0xec2652efeabf1015U, 0xe313b108d0fd05e2U, 0x337f2ccaff10104eU,
  0x2027e5052eff1429U, 0x7f1e58106142711U, 0xe4e0dd5df69bd2c0U, 0x261de4e0fb7cdcebU,
  0x3f7fa01308e01217U, 0x4d24cb107ee903eaU, 0xa82715f851c7e14fU, 0xc07f1c2bc12fc5faU,
  0x9fe5dfc306db151eU, 0xba60bd5ee1d2494U, 0xbed61bb859d409c1U, 0x7f242e606506ebfaU,
  0xca560ec4040d37ccU, 0x7fe10327ea1114a1U, 0xafeae9e72815facaU, 0x671afa2715041ef5U,
  0x1e180ede438105f3U, 0xd7f0c1fddae9f6f2U, 0xd121d9342be7e117U, 0x7c2c0a1781f1cbebU,
  0x59049ee10fe8d903U, 0xff0507b1d8080bdcU, 0x3114195181d2f200U, 0xe6fa1916a5f828d6U,
  0xb1eef712eeb6f30aU, 0xf6121b06ee000af9U, 0xc11fc137ffee4f1U, 0x813079dd0a7f2017U,
  0xfaf267e6cc03122aU, 0x18c6ce3b62ef2a55U, 0x35fe013dedc0eaeaU, 0xd5d737d6dbed147fU,
  0xec0efb15724306e8U, 0xe81e1a191304ebcdU, 0xb81013a51f1f3ebU, 0x521741670b030626U,
  0x2221df038169bfdfU, 0x123b23e5d8e7e01dU, 0x37aa61d4db27a2fcU, 0xd120ebff2031e817U,
  0x813719111efcdb4fU, 0xdb19fbcf14e7f719U, 0x31ce38d7c83917eeU, 0xbeed9b03a8b531d8U,
  0xc11c047f1620b5f3U, 0xecc1dfecd39f206U, 0xe5eb1e68f233e7fdU, 0x2500fde3237f2b17U,
  0xb8d6f017fe22f422U, 0xb5fc10f5eb13f181U, 0x82ff5200eeb18eeU, 0xd06ad10ffe810001U,
  0xb33b00ec20404162U, 0xcef5e2e03a240ff1U, 0xffc2f60a0dbd0c05U, 0x2a0de067ff7f92cU,
  0xcbf917e5e303f025U, 0xd345bcffef08351eU, 0x815612122921ba31U, 0x950f03f2b00404d8U,
  0x311ba63e1bedf7d5U, 0xb130485f2c90a0dU, 0xf7adfc0481ae1f0cU, 0x42fdda1fad2cd074U,
  0xf522c8b215c90881U, 0x43ac7cf19d2fb7d9U, 0x810bde46b65b0c12U, 0x2fa23bdfbfe0b36U,
  0x291b080d53e9d929U, 0x33941dfec3b235eeU, 0x5a35deaea7e433bfU, 0xeb04057fb52e3829U,
  0xf8d504da39fb307fU, 0x10c3d5fcc4b3021fU, 0x6611142448190ffbU, 0x51d891091b28dd42U,
  0xfee060ee6624c75U, 0x49dbb79d8b42381U, 0x13ecefcc50a0fe0bU, 0x2cc3740211a1ff7U,
  0xaf649f3c3ebb7ffbU, 0x1b810ae5fce9afeeU, 0xd6f50e2125eefeb4U, 0x13f34724098ede45U,
  0x81f30bcdf8161212U, 0xf50c3f11ff001d9cU, 0xbafe10902b030906U, 0xf9011aea2e9fd1c0U,
  0x7f600e2858060bc0U, 0xf7081ccfd9bf0cfcU, 0x22f2e80fe9090f1dU, 0xe3811adccc1d0a1cU,
  0xb4d83701fefdfc0fU, 0x530100f11f110d7fU, 0x2125e3082dad0734U, 0x5ff64edef82cfcc7U,
  0x14a51f0bf4fef115U, 0xc9e71662f614f8e0U, 0x2602ecf41c7f07e8U, 0xa6c1df01dd273081U,
  0xfd0900ea44044cfbU, 0xdbf40d236ac9dd5aU, 0x96904b2ccfd4ead5U, 0x30f272e6b8e9097fU,
  0x717e0b45c20c29f1U, 0x921437952ad3eec9U, 0x2e06ebcef955e319U, 0xe6323fda244c227fU,
  0x49db57fe45d41b4dU, 0xc1d681d4a207fb47U, 0x1c181918473013d1U, 0xeb1902e6f8eceee9U,
  0xe9f0d4d8f581e9cbU, 0xe626d7ec09112a6bU, 0xdd1158a972cfefb7U, 0xc3577fcc34f6db98U,
  0x4bfc0f1c0817fedbU, 0x7f0edffefbf20cf9U, 0xc4231cfc1612e8f2U, 0xf21ff80c9b0a09e0U,
  0xd32afb4494891dU, 0x131a527f08600c88U, 0xb9d74b032ab297e9U, 0x7f1ddbf60f11f44eU,
  0x1620d508eb06ff49U, 0x76d069afec2937e4U, 0x7f02f31b11e40f0dU, 0x29465e007160bd4U,
  0x821b44c2cc4421ebU, 0xf9e5e77fc72046e3U, 0xdffcfd65fa9643d0U, 0x1cf602ac0bf53ceeU,
  0xe8041ed44c1de1c7U, 0xda7fd4f7e4ebfda0U, 0x47ebe00f431915f1U, 0x23e8131afae8fa97U,
  0x270bc5fc3960fd1cU, 0xbc178133e9f91223U, 0xd12b17f781a91b2aU, 0x1133415472f9f049U,
  0x4ff3b82cd323ce43U, 0xf0f1fcfaf52bf4f5U, 0xd9522f0013271281U, 0x1aebc91d003de333U,
  0x53331c7aa9dbe25fU, 0xcbf24b81db2ffd9dU, 0x5adabd2f3a50d0f8U, 0x52f0d10f1166f424U,
  0x36cc62f13bb5f518U, 0xbc81e03ec9d10196U, 0x352a137fdb155300U, 0xcc0ff920d8b0ffd7U,
  0x3b2924b930a921f6U, 0xd3f5220b81910425U, 0x2fa4783552f90f6eU, 0xce4d271ac5c7c607U,
  0x2eff1b15cc180efaU, 0xdeea46d0dceb117fU, 0xde3bf408e92604e9U, 0x9bd6ed0dd5f6087fU,
  0x3978f30abe16408cU, 0x9710d0362305d038U, 0x81a6e8200d0d0a14U, 0x7e7d7f0160cf3fdU,
  0x15f20e0b5001ed1dU, 0xe30951e720e8116fU, 0xd7d081fdc7130900U, 0x494b41ed19041eecU,
  0x76052581c3f523f0U, 0xb038fee1150942f2U, 0xac17e4d4cb1a22b0U, 0xc9113accfefae8beU,
  0x157fde4127edf5f1U, 0x5b31d41cf0f4fcc6U, 0xdfdd2ff023efe81U, 0x1a1752eb2935fdf1U,
  0xb5d6d52511e2ec24U, 0x81dcf5c605e7e913U, 0x3438d52e12eef5edU, 0xe60a3bf359010df3U,
  0xde24f8ae420be8a4U, 0xe27cac02cad102e9U, 0x7fccd51a32fffaf4U, 0x21f7f7dce1581435U,
  0x7e60ed066bcd067fU, 0x3de94702f2f33c0cU, 0x85fa260ae2fc252aU, 0xc814ade1503061fU,
  0x98ff5103e7ebef05U, 0x44f5daab20100628U, 0x46692d3a7fea42c1U, 0xec2a31dd60de5017U,
  0xc5049b0538812d03U, 0x430510122144f29U, 0x1d18fc012a19fc00U, 0xf3481d20b2dc1d7aU,
  0x45c23d137f29fb03U, 0xe605cc19c52c0fd7U, 0x788ee7f3809ee1cU, 0xebdcf8c0e3280742U,
  0x36f6d50a4610080cU, 0x5719f436c8de23b8U, 0xc92002d0f0421a1cU, 0xfc168130d91f09daU,
  0x14b2000021e1U, 0x273f00001550U, 0x3b9a0000288dU, 0x5f100000c5cU,
  0xfffff14700001c79U, 0x175e00004741U, 0x82b00002145U, 0x676300005231U,
  0x605c00004325U, 0x4587000024ffU, 0x3252ffffffdcU, 0xf500001d23U,
  0x22df00004b8dU, 0x188fffffe9fcU, 0xe40000028adU, 0x53ea00001a1bU,
  0x39e80001802fU, 0x1d5affffedd7U, 0x7edf0000006eU, 0x5609000036c8U,
  0x2638000041a5U, 0xa66500001ae8U, 0xfffffbf500003af3U, 0x293b00003a9aU,
  0x28e8000014f3U, 0x23d800001460U, 0x200dfffff657U, 0x4873ffffea76U,
  0x2e74ffffe4c7U, 0xef68000033f1U, 0x229ae00003ae3U, 0xffffeb470000009dU,
  0xffffed20ffffe38bU, 0xffffed2f00000b4dU, 0x2f0e00002c2dU, 0xf5c00001283U,
  0x3e4700000b6dU, 0x47300001159U, 0xffffd0b200002994U, 0x99b0000300aU,
  0xfffffbdd00003fa5U, 0x47b000033c2U, 0xfffffc9400000107U, 0x148500007cbfU,
  0x179900000f4aU, 0xff400002f9cU, 0x5a53fffffef9U, 0xe6700002cc9U,
  0x1300001dc0U, 0x5f6000013e7U, 0x2b6f00007e27U, 0xfffff21dffffefeaU,
  0x5f2400010755U, 0x5838000033b0U, 0x31900000165aU, 0xfffff41300005a2bU,
  0x195400002b8eU, 0x1604000038d2U, 0xffffd8c20000ae98U, 0x20f000000d0aU,
  0x29e900000270U, 0x5b630000121bU, 0x5f900006676U, 0x256500001ac3U,
  0xfffffed600003eb7U, 0x1bb3000080d8U, 0x3342ffffebaeU, 0x45ef00002cc0U,
  0x495000002788U, 0xc6b50000482bU, 0x3c67000024e1U, 0x4ca700001ecaU,
  0xee0c1607fe1a001bU, 0x1004e50402ea1002U, 0x10e2f8fc14fd0223U, 0xf3e0e200d114f30dU,
  0x9f0ee05e729171fU, 0xffd08f0f9cb0700U, 0x2190900e1d916f8U, 0x10d7fe07f80e2101U,
  0xfd90012011ff307U, 0xe40718e4b9f5422aU, 0xa09b2a2fa15f831U, 0xe720b19d1008f5f8U,
  0x40113051ef11703U, 0x1f2a070b061010e5U, 0x1e0607efff14fa0bU, 0x1304f80e06e205f5U,
  0xf1fe11d92ce70c21U, 0xf7f9f1190c1103ffU, 0x8af6e7cff1a7fc7fU, 0x7ffdabd1c6fe0c81U,
  0x220087817f960b7fU, 0xfe08197b528817fU, 0xec03990dd35e7f03U, 0x7ffb25fd31aaf22eU,
  0xd71eb642e11502e3U, 0xa5e541dff07f4407U, 0x4303fe0d1f400deeU, 0x810675e8bda6a07fU,
  0xfbe1a68102fe13bcU, 0x3c7fdeb490270617U, 0x35077f0a3dbf1b9dU, 0x7f57ae7ff903f6e0U,
  0xdbc1df07ff8e6c2U, 0xa8e10ff1fe84fdccU, 0xaffb7f3d143d2df4U, 0x3adb206fb59f1cfU,
  0xde0d01fdf4c3fb21U, 0xd02e000fa140ff1U, 0xc19e7101003f713U, 0xe6e1eaddca0edc16U,
  0xef209ec341adeU, 0x27050a1207460b06U, 0xff280cd3e41c2af8U, 0xf7c0f70604101c0cU,
  0x133e04e20422fc07U, 0xebfb0a28aaec0521U, 0x4f17a0bdf4ef1724U, 0xe714b9a0a516e501U,
  0x103130116ec1306U, 0x5922fd2c05eef738U, 0xe0f10cec17f5140eU, 0x6ea020103ef00ecU,
  0xbe0510ff2aed09f8U, 0x601eb12f51f0b01U, 0xfc0b7fd40383f7f8U, 0xe6d6abdbd38d0cf9U,
  0x2381e519f0b00fe9U, 0xc9ef9eaaca28dff1U, 0x7f81ea08d445f30bU, 0x11f13cbf9a57f04U,
  0xe809c411d61612ddU, 0xb8fcd8eafbe2e215U, 0x1b81f016150b2e03U, 0xcd816581d7e0e6dfU,
  0xf1fb81871a7f0e7eU, 0x23da6e8c81c8c40eU, 0x371afa1650e221ddU, 0x43deb4fafd7f7ff4U,
  0x7f810e290b7f8bd0U, 0xccfa0c7ffa907fe4U, 0x1f81f4080f1f377fU, 0x8112f02a7ff781baU,
  0x7f7fa2b07fd5a5c6U, 0x8c817f7f7ff77f69U, 0x7f150fd2ab815393U, 0x7f7f8fc97f7ffa9aU,
  0x8111d37f7f81f87fU, 0xae818195817fcb43U, 0xc881de7f7f7f8181U, 0x7f7f81817f90817fU,
  0x7f03817f7f817f7fU, 0x8d0b491081decbccU, 0xfd8ecf3a7fdc7f81U, 0x70e656bf81c3817fU,
  0x7f7fe84c7f7f7f81U, 0x728114da8ff3967fU, 0xdac97f9d92e5f7c0U, 0x81817f9c81e6d87fU,
  0x7f0dd37f817f7f89U, 0x627fdb8191810881U, 0xf610f0e70181f1dbU, 0xf0d6b5bee27f0100U,
  0x1767fd1cf0c781fdU, 0xb3f2978bcb1a0aeeU, 0xfd74ea0de242f5feU, 0xe05b157f045daffeU,
  0xf51bc80ad31314d7U, 0xed00e6defde5e61fU, 0x1c71ed0e0c043501U, 0xd4756270cffe27d9U,
  0x7f7fa3d61b9d1261U, 0x2add7f81887fe21aU, 0x3f13f51139db24daU, 0x60e2b9df7f8bf6faU,
  0x9d901e7ff3937fd5U, 0xcdea0aeef896a0f0U, 0xa78f40a160232fdU, 0xfd05fd2ef7f07eb5U,
  0xfb030b1eeda809e5U, 0x519f207fbeffff8U, 0xfdea1c1efae206f7U, 0xfadcfbfbc30b2401U,
  0xde92b17e62bf6d5U, 0xed0106dc192f0efeU, 0xd2a22e8ee1c33cdU, 0xe118fa08f70afb13U,
  0x17d714e6fe011bfeU, 0xf9faeff0d9208104U, 0x402d4d5fd0e1f30U, 0xf2f9caf8addaf6feU,
  0xa06eeee06e713e3U, 0x3d010ff906140728U, 0x14fdf7ecfa10f51eU, 0xeceb001503db15e1U,
  0xe2eefc1114f40004U, 0xf7fe12130cfff81aU, 0x8f1af77f039e7fb7U, 0xf76ea4dbd50104f9U,
  0x17157fdbda820aeeU, 0x16d49381d5257de9U, 0xf7017f0ae5498601U, 0xb3e113fd4f3deb81U,
  0x7f1f7f21d71212ccU, 0xf1376bd204f2030eU, 0x48077d1421d94affU, 0x9ff67f24c17f499bU,
  0xb8d8d9fd1df414caU, 0x8196d0a3858ffc30U, 0x7119d810ac501c0U, 0x4cfb7f9cfbfaf8faU,
  0xe1b93cee09fcfc7fU, 0xade1f6edf581f9f3U, 0x20f0a923e34b1b02U, 0x128a7f06f009facbU,
  0xf203fa15e7170cfbU, 0xfc15e019ff1008faU, 0xee04182effedf9f2U, 0xfbdbff0ccf0718fcU,
  0xfa1721fef52df21eU, 0xf514031c09b607fcU, 0xe15111bdaec21e5U, 0xfc13f406dd07fc0dU,
  0xfefc150806fd0ef8U, 0xc07efffd11a1f01U, 0xc425dbf6fbfaf723U, 0xf200daf31e25e808U,
  0x1203ecf206ec0c11U, 0xe070fe600f402ccU, 0xfff1010ef4f21619U, 0xde04f00208ddf1cfU,
  0x71ff9e916effdf6U, 0x6050f0cfcfc0d1fU, 0xffffff5100000368U, 0xffffe33e00004aa1U,
  0xfffff8cafffffdeaU, 0x6b5cffffe630U, 0xffffe76100000e2dU, 0xfffffe04ffffffe4U,
  0x3e49fffffafcU, 0x4fa00000794U, 0xfffff449ffffff3bU, 0xfffffe90000043b5U,
  0xfffffd56fffffecaU, 0xffffd546fffffdfcU, 0xcaffffffe5U, 0x26b3ffffffacU,
  0x6f1300007c4aU, 0xffffe12a000002a4U, 0x257ffffcc6eU, 0x4391ffffff91U,
  0x6f3ffffe197U, 0x656fffffaa0U, 0xbbfffff12cU, 0xfffffe3affffeccdU,
  0x2eaffffe2f4U, 0xa80000005aaU, 0xfffffec8000031d0U, 0xad1ffffcb9dU,
  0x126ffffe501U, 0xfffff8abfffffab9U, 0xb27ffffe9acU, 0xffffd85c000003e4U,
  0x1a0a0000323cU, 0x34b6ffffe7e7U, 0xffffe91bfffff8c8U, 0xffffec95fffff635U,
  0xffffff98ffffcf74U, 0xffffd1bb0000022eU, 0x526fffffea5U, 0x32bcfffffb0eU,
  0xb1fffff840U, 0x5739fffffd9aU, 0xffffcf8300000e3cU, 0xffffd05000000334U,
  0x8fe00000e56dU, 0xffffcd8efffffdb2U, 0x3ea9ffffd9c1U, 0x5953000005d7U,
  0xffffe1d500004f68U, 0xfffffde100000a65U, 0xffffeefa00004600U, 0xffffd76e00006affU,
  0xffffff5a000002aeU, 0xffffe23afffff37bU, 0xffffe4fcffffd01bU, 0xfffff93e00000081U,
  0x96000003adU, 0xffffe5430000061bU, 0xfffffeb5fffff89bU, 0xfffff4f2000000b3U,
  0xfffffd4500000ab9U, 0xfffffb3f00005dd6U, 0x15000000049U, 0x237d000054bfU,
  0xffffe1f8ffffff3bU, 0x595600003045U, 0xffffe24a000000d6U, 0xfffff096ffffcfebU,
  0x17ffffed8fU, 0xffffeae600000079U, 0xfffffe940000440dU, 0x47100000abaU,
  0xffffff3500000f79U, 0xfffff65afffff349U, 0xdae11b10fa34fe07U, 0xfbe0edd6df17d8ebU,
  0xebf1e211eddfe304U, 0x5b8d4311b1cefd5U, 0xc5d82132f7ddf3d8U, 0x2200711e0181cefU,
  0x26f2ebe40fde8f18U, 0xd609dcda1b1e381aU, 0x36fee1f6ec0da0f6U, 0x7fdbba03ebf8e9f4U,
  0xd202e7d80cd714d3U, 0xf7eff69ff600b025U, 0x2af3e4040ccefef7U, 0x110fdf33e0c25cdU,
  0x1054e4e70fe5e000U, 0xb21e3045e90f2cf9U, 0xc35214ec21e657f4U, 0xbfefc5d313f6e401U,
  0x58a61a15ed0e26deU, 0x33fb120c2dcc4f1aU, 0xea04fbf41ef8cf21U, 0x32afdfa19050eddU,
  0x1f02aae7e5c1fa0cU, 0xf354042b0c19ff05U, 0xfbd931e80df1bdfaU, 0x2ec17fd815f429efU,
  0xeaf7f4c5f607e043U, 0xd0e9220d0a17d6d9U, 0x13bf2ab8a5fbac78U, 0xe070ce8fcf837c3U,
  0x9ae2fb2ea433d4ddU, 0xc9e113ec1828df31U, 0xf61e3813de11f805U, 0xefecd3e704f8eee1U,
  0xf0fe040d07dce2c8U, 0xf4da2356ebcbf9d0U, 0x3a26060c241926f4U, 0x1ffdf81a1905f1fbU,
  0x1111162d262015f6U, 0x3a0fdc041ad2273bU, 0xbfea43c8b1004a18U, 0x152afcf181e9f1e8U,
  0x20011ae506f51bf3U, 0xc11e1d0c11baf4eeU, 0x510d230026da03e9U, 0x2704f2f40625e2e4U,
  0x32ee2ac1eef4ee03U, 0xf110ae090610f7f6U, 0xf70d28251e3afd0dU, 0x6e0e13ef405da13U,
  0xeee50a7c12f213fbU, 0xe9fa0deff62d07edU, 0xcee07ddf3eb0c01U, 0x61cf9c617c40a38U,
  0xdcedf642fbc93809U, 0x615fc11f9cef9dcU, 0xef309ed20e00f03U, 0xe7fd0c01fb083eafU,
  0x908caf19a2c1d1bU, 0xffeb1222fbd7edfdU, 0x701290a0cde8110U, 0xef0861c3ee17ebffU,
  0xfefbe221ebebd92eU, 0xd0f555fcff00d0f3U, 0x2fdc17d7000125ceU, 0x43071710ff2de4faU,
  0x14041041045fc6e9U, 0xd0fb0a09100ff7dfU, 0xe4d62e23ff2af5f3U, 0x1bc9c9e60fe9e0feU,
  0xf300ffde052c13ceU, 0xf21e3e50e1e1f5daU, 0xf828dbf3e7e105e7U, 0x1c404634e30622dfU,
  0x11f3f613f1f24911U, 0x11f2f1bd5207f950U, 0xd8f63ff09333e9ecU, 0xfe13c9fc37fadf04U,
  0xaa4f60fb6b87308U, 0xba0fe323c70fd6d3U, 0xec51e36bdd201b0dU, 0x19fdeeee191bd9efU,
  0x2603b03533c28e81U, 0xe51ee4e4fb35c5afU, 0x26c4fcef06b52addU, 0xf719e61594f7298aU,
  0xdc1b0f281de4eee2U, 0xcedae251cd17f9efU, 0x700818b52c25f421U, 0x1043d9201efa040eU,
  0xc03609fe09040cf9U, 0xb20a0ff8fafafa33U, 0x18ff0ff90bf4f300U, 0x3f0ff3cfac5060cU,
  0xf302ed217ffa1b19U, 0xf3f306ef00f9dae0U, 0xdd0b10030ffe0e11U, 0xfe11300d2dfd53dfU,
  0x2eeac30826fb0a1fU, 0xc13f204fa080a03U, 0xeefeda07132438eeU, 0x2c15fa02140329dbU,
  0x2f70e3dfa052a2eU, 0xe01dfc01d014f827U, 0xf116421a2e0e1713U, 0xdf07d404f604f602U,
  0xd060310fd02f013U, 0xc7fa07cd73f8dd19U, 0xeeef2ee5fbfb10f1U, 0x2d0723fcd8082100U,
  0x20715f8d5dfd807U, 0xf18173c1748eae0U, 0xe311f2f8cfc3f649U, 0xdb6f04f207bcfef6U,
  0xbf2ff470fadae933U, 0xf2f081f7b5c620efU, 0x25e35e33f4340cU, 0x4b19fc2616fd0814U,
  0x192bff0838f0e745U, 0xfbfc2ff92856cffaU, 0xc9f10f36c8c83af8U, 0xd3cd12bafff5d3ccU,
  0xc0c1b13dd08f913U, 0x232bec28ffe5fc23U, 0xd5d8f8240a260b06U, 0xe0d5e0ef01dddbd3U,
  0x10010ef100fbf8f5U, 0xf1f6f8fcfb551204U, 0xf44becfdedfbbcfbU, 0x32fff7fc0b0cfbf1U,
  0x2058f600f1f3e906U, 0xfa10fee802084310U, 0xeffbe5f4fefbfefeU, 0xfa0bb406fbfcedfaU,
  0xff39f4fbf9fdf803U, 0xf32c094cfff60300U, 0xf415fb02fa450721U, 0xf9eaf0eef214f5f8U,
  0xf9f8e9fce716eefaU, 0xfef5eaf7227fde06U, 0x3f09fe11094244ecU, 0xfbfefc2603fb6cfaU,
  0xa34f1f0f40cff0cU, 0xdcf1f4f32bfd5cf2U, 0xf4f42425bef3cd0cU, 0x2d64c8fa10e73603U,
  0xf7feecec18eabfa7U, 0xff20d91bff020600U, 0xfd03091224efc7d2U, 0xfc3d131ce3e1c6f1U,
  0xea2201162629e506U, 0xeef511e75af9f8deU, 0xdbf5cafad608b752U, 0x2f0dd202e5d7fcf8U,
  0x274b072ce41126b4U, 0x15ea1c39031b9bb9U, 0x1cdd623b9e1f7f6U, 0xfa3fe1efd30cedf7U,
  0xffb73613ebf1f9feU, 0x93edf495090bc9e3U, 0x47e6e6233225e77fU, 0xe8f2003e1114d6e8U,
  0xd9b3f130f9f20aecU, 0x8115f4e4f717d424U, 0x516f2f5dd07f7daU, 0xf6d80be7000d16ecU,
  0xd605e1ed37160601U, 0xd9dbe10b53132128U, 0xf9e10b12fefe0404U, 0xfcd0c6f825e92527U,
  0x1c1e0a09b1f2f304U, 0x2829e91603221cfbU, 0xf2de6cd4eb0be5dcU, 0x57050916fde8080fU,
  0x2518f00137d1c8fcU, 0xb0df601351912f8U, 0x12ed0312c60ef609U, 0xe1fd2b02fef823feU,
  0xdbf60814f10dcaf9U, 0xff13fc2ed609ffd8U, 0xedfef623f6fef118U, 0x190ccefdfe0aea09U,
  0xc0e03dadf180aU, 0xf6f9ff7f85fbf218U, 0xfffcfab5f5f50becU, 0x10ffdf02d7f40611U,
  0xdc220f02e605299eU, 0xf7f0d1f90ce90ae8U, 0xbe0fdeaf0fd420aU, 0x7fe1bf6dfe410feU,
  0xf9faffe62506e400U, 0x7060de9030900feU, 0xfb0beed80c0627feU, 0xf201f809ebf60409U,
  0x272e1df6fe111a11U, 0x24fe30bf7000704U, 0x1daf713dffc05edU, 0x170ef302f3f32106U,
  0x8403fffbe7c82b03U, 0xe7b5e72e13341fd8U, 0xe802faee08f0da1bU, 0xf13d48f9fb1bf804U,
  0x26ea2c1b9fbe02f2U, 0xe81dffd0ef0d28cbU, 0xefeced32063cdb23U, 0x22fe11583a031230U,
  0x3c1a2a401a16db49U, 0xe01e812c16082f20U, 0x1e0e0e82a1fe5faU, 0xb1ceebcb0a13c6f5U,
  0xe2110817eee0f92dU, 0x12a3f5ed291be0e0U, 0x86a0c2b2f181aefU, 0xe82717251ad33118U,
  0xbbef062fac2ab9dbU, 0xd610cde3dc0aeb39U, 0x14d42d0b01260ff8U, 0x22f9abdac3f5db25U,
  0x809dcf9eb40cff9U, 0xcb0130d60f0ce71bU, 0xca1e120412fff84fU, 0xf707db0831f10307U,
  0xd1befe34feba1bd6U, 0xb5f67fb01f0441dcU, 0x143625482ef2d80dU, 0x90df5cc242adb1eU,
  0xf812c6feff4fe231U, 0x5f9f6dad308e711U, 0x1f0fe72b1023065fU, 0x1ff9142a1c1703dbU,
  0xd6d71e13170ff011U, 0x170427e510f0051eU, 0x2a3acaebe3f25001U, 0xa7e813fb0d2efc12U,
  0xc304e2f9d3f0e2f2U, 0xe619f1e5f7faf233U, 0xc50801f0c8dbbefcU, 0xf103d3e425c2fd24U,
  0x416fefc3979e2ddU, 0xe906ff18fff1cce1U, 0xfef7e8c90d1cf3edU, 0x8f115f1c21cf8c8U,
  0xd521d00cc025f0ddU, 0xf7d1fff434f2e6ebU, 0xf330d7eed7e4192dU, 0x1ae0f610e311eaaaU,
  0xccbbeb0bd8f4c7f8U, 0xd60f17f9b1f7f3e1U, 0xdb25c2111edbeadbU, 0x81ee9623d616f6f9U,
  0xeb0100d1ff0de32bU, 0xe5f0087be204d1e1U, 0xf22f1615d43bf6ecU, 0x1ec06cbdd1214e9U,
  0x13f91e1a13f5b300U, 0xdea1084402effcc5U, 0xcc1d06aef8702dfdU, 0xd35befeec0624f1U,
  0x320911d3fc9c4ddcU, 0xb0330c3feaea07efU, 0xdff4c9f53e02122U, 0x12d3faf80414f5f5U,
  0x1be40e9dddfebd1aU, 0xef3ad80419ec0be3U, 0xcdd514df022106f3U, 0x30fb13062f1cd31fU,
  0xf5b7e9df07172220U, 0x20350bef3ec02652U, 0xc4f481d8ff1e3803U, 0xff0f121cc1431247U,
  0xb91add11040c3f18U, 0x2216f5ff01141cc6U, 0x3f009fb07e9baf6U, 0x44fa0225f1c6fa17U,
  0xeffb16f9f2d608e7U, 0x16ededbbeaf809bbU, 0x71a0edc15fd1e15U, 0xfc21248a141c1cccU,
  0x36ec2b05f727ff0dU, 0x3d10d011f1ece0f3U, 0x7f8e5f30af60d7fU, 0x4b181329100d4bfdU,
  0x10230f14ea29e0ffU, 0x1113f2001ff4b8feU, 0x12ce061c421a1ff9U, 0xc7441818fded0cffU,
  0x1f16f1dbf2fff820U, 0xf5fc0c1d14300609U, 0x9f9fe3221f63fd6U, 0x15df15f2f4f71d3eU,
  0xb9fd21ed2f13f80cU, 0xf4f0dbd7fefa200dU, 0xc806bb10c1a6f13fU, 0x1e073b2cf4ba2a13U,
  0x105200e103d0baf7U, 0xe1127db558f8632fU, 0xddf52f2c18e951fbU, 0x20fdc8e8e52bb9e5U,
  0xeec77ff5cc0eeda9U, 0x57d4e7fafb0ee6baU, 0x42c53ee6f01eede4U, 0xc9cde21707320c01U,
  0x16179700ea18f6fbU, 0xeacaf0ee18fa02e2U, 0xdcf724bdd9ab36c1U, 0xd4db1513d0fb0c0dU,
  0xea7e3bf60c00f0f2U, 0x2d119211302262aU, 0xb9302fedfc0a060dU, 0x250be3e11f16f4ffU,
  0x180e19ee6a3617bbU, 0xf71414fbe8fadeffU, 0x4a02f3fdef14b8e2U, 0x80ddb21c3f507f7U,
  0x2b04c5fd0b1131d3U, 0x20d02fdf1141ef1U, 0x4e39b7f0512c10fU, 0x151bc5f6ef031a05U,
  0xeff60a61d63e070bU, 0xd31ef722eb0a08daU, 0x11bbc10e161110daU, 0xd01f4f7e123ebddU,
  0xed0bf70b151bcc2fU, 0x1a0bf8d60eea03d3U, 0x9e3ef0820cbd4ebU, 0xe06b943e0ce34bc7U,
  0xe135fa011bf34ff7U, 0x2bf7a291d30916d9U, 0x2f8e22cf9f12e30U, 0x1f4fffd3e2c1f2f3U,
  0xea253a282bd6eac5U, 0xd62aed3391cdda01U, 0x10eedaffee1be2f4U, 0x152431c6caeef8eaU,
  0x45df0ca714bc521fU, 0x2b02f31e812023f6U, 0x8ddcfa19044d0239U, 0xd0352306e6f01511U,
  0x31568812e11de9f9U, 0xac4093224cad9e9U, 0x5df0e0cfc3bdacaU, 0x343cef4707c0f4ecU,
  0xe5f9f02de3ec0b56U, 0x2524e8fcf61004fbU, 0xe00266ee4dd6ea44U, 0xf9f8ecff0c185346U,
  0x1e136e11e50f7febU, 0x62eb04fd040706c0U, 0x3301380300f50309U, 0x40016f10f291e07U,
  0xd90d41f7d61cf825U, 0xeb072405fb600b3eU, 0x10e3030b0b0cf2U, 0x175a01efec0904e4U,
  0xf3eb54abd6c6ebdfU, 0xe3294539070cfce2U, 0xf1908d8fd10f65bU, 0xe2f7f313f7d90b15U,
  0xf60a4e03f7c5d70cU, 0xf11c53f4ff28fff1U, 0x25feeee3f2e9c82bU, 0x1d70045f409e93dU,
  0xd8f6e0fe1d281b16U, 0x111d121703e6e9fcU, 0xd8040ae27f05035fU, 0x21023306dac0f423U,
  0x1611fb1a319c22fdU, 0xe5e7fb2002fef4f9U, 0x82ee7690416d7edU, 0xe2e709feebf2dbedU,
  0xf5e81d1de9e6363eU, 0xe30cd6e9f3166609U, 0xde0ce5ebeddd0ae6U, 0x100e05ef0aea10caU,
  0x241b0deeee0bf1f7U, 0xf50507e9000ffbU, 0x3812e1a101dcd70cU, 0x9e2e4ff15230ff0U,
  0x239e20c1adbbeeaU, 0xe3caef29fa1019c3U, 0x31df160ada1bbd0dU, 0xfc24ce7584f4d1f5U,
  0xf5f209e341eef34bU, 0x1de3a2eef2c614c5U, 0x210f02ecec0f6fdU, 0xfdfb3b4be630f232U,
  0xb4e9084abcfb57ffU, 0xa51e0edbf9e5e408U, 0x2514e3e5c11ab4f1U, 0xfd01e4401e29f31fU,
  0xe001fc170921fcfeU, 0x8ee03f61ee014d2U, 0x1eebdfe0cf9030dU, 0xeb7f0ed70d3ff2c6U,
  0xd80c45d31ee0dff8U, 0xb10024caeccced0cU, 0xb2d0cbeb01090defU, 0xfa0c1206f9ecd9bdU,
  0xeefefe1fe0fd04d9U, 0x21fa0c1e0dc6f8e6U, 0xe202061e511e0c0fU, 0x1e1031ddadfe932U,
  0xa13f6f5fedcffU, 0xf73cd531eb19d125U, 0xbfa020eda1512f1U, 0x1ee9fdfcd805f1f5U,
  0xf95400a513d542f5U, 0xd8cfe0d7131d0cffU, 0xdbfa0eb50593810dU, 0xbe2eff02f905e902U,
  0xee0a1f26edcf142eU, 0xaedaf403c43509ffU, 0x2201d2e4f121d049U, 0xcffe02ced30ef21U,
  0xe8d5d1fac2d41fe6U, 0x121c143732f23b1dU, 0xfaf90cebf612efe6U, 0xe86ae0f015fd1bdfU,
  0x1bedea0a8119f207U, 0x8e93b1a07e82fU, 0x9dbf1ddd11dece4U, 0x4e283ff51411ea23U,
  0xa1feb9f830f9e62aU, 0xac121de20601e9efU, 0xfaf60cfe23d3b5f9U, 0xf41410d1051951f1U,
  0xee93bd0be6be20f1U, 0xf90eff0bf3ea0307U, 0xf1101a09efe2dddaU, 0x22fad11824ecfd41U,
  0x312db8e342ecadd8U, 0x1aebf30ef6490c14U, 0xffffd4c400009614U, 0x3e06ffffffb7U,
  0xffffb2020000630aU, 0xffffba9400002ee5U, 0x15e600002f1bU, 0x576700002d00U,
  0x4d13ffffd17dU, 0xffffcc5500002e05U, 0xffff7f2c00001af3U, 0xffffd11c000037efU,
  0x2787ffffb8faU, 0x4ca900008bcbU, 0x6c1864dd417fc404U, 0x21d5fc2488f5e8a1U,
  0xe028229c9dc6f1fcU, 0xff0006d028e9ffedU, 0xd9e11d1509f41081U, 0xe02f0c04d4e80ae6U,
  0x1319fdd352f4d5cdU, 0xea7fc60cd3f3fbafU, 0x50c5d0ebee1824f8U, 0xbbcdec3f7e12dc3U,
  0xecd9268e4d08d631U, 0x6bfcce8108e50bc8U, 0x2b7ffedddbfee611U, 0x9b043f060be412e1U,
  0x1101e3f5a70ffff7U, 0x18b6e5d10802fed2U, 0x15de1fd42212f616U, 0x18ecdb81f6d809d0U,
  0xe4e350f14af6ecbdU, 0x81c7d3fc9d4fbcaeU, 0xa5f903f0edc5d11cU, 0x44882ee98281a7ebU,
  0x9e9755a1f7c6edf4U, 0x41bd0bc7b10e68eU, 0xd430823b043041dU, 0x4858b4027f0be63eU,
  0x3cd3e502fdeae7efU, 0x2a3e127c58adc104U, 0x3ecd4327b6b30108U, 0x4ae1425e7af9e87fU,
  0x44fe0a2060180a17U, 0x68fd2e2208ee19c3U, 0xc1a1a6c4713057fU, 0x1500fe2f01172dfaU,
  0x81e629e6e51c072aU, 0xf62b01104110aa02U, 0xefec19e02d17f245U, 0xcbf4d9461e3cfbc1U,
  0x81f620cee4f1e605U, 0xed0e0b7fcef0c3b8U, 0xcfc5ce1fa525121bU, 0x15bbead34313cf8dU,
  0x75cd7c5f2e3e993U, 0x3d03fd3f81e60c0bU, 0x17feedf40cd3ffc6U, 0x14f01cf315dbfc7fU,
  0xd0b2fddec9b1ee25U, 0x7623240c3124e2e5U, 0x6cc0d25d111361aU, 0xb48127cdec271643U,
  0x931e681d200a0c07U, 0xf22334fb19fd1bfcU, 0x15c2b2207f15dbe2U, 0xf3e21faff2eceaf0U,
  0xb1dfc1bd5cd2dcbU, 0x81160fd55bf43126U, 0x5f6122c2520ffd1U, 0xfceac612d0b83a1eU,
  0xfdea27b4eefc9053U, 0xf434ab8175f9fbbbU, 0x4fb1837be0b0ef1U, 0x1e8157dbe7ec1a6bU,
  0xca4d3f1038f3f6e9U, 0x1f24f0cc2809c45fU, 0x2813ea810a1e0842U, 0x2cfa374e00b2dcc0U,
  0xa1ab51be6fbc72eU, 0xdf597fcb00011dceU, 0x6ceee92a04e00a1aU, 0xeafbf6ffdf2f2616U,
  0x7f51024f42b92651U, 0x12074cee07b4ffe0U, 0xb9bcfd25cd4e0e92U, 0x8108f7d4aafba933U,
  0x10308550b1dc8b6U, 0x219c4beedf717ecU, 0x2e8f7ffafce00272U, 0xcb5325f928e721caU,
  0x81d0c231edc2d59U, 0x7f91fd0aaf0c082dU, 0x4bed98d81406c81fU, 0x6dc14071b06012eU,
  0x938f3c01d1f7ec81U, 0xfcf3faf91a32fd00U, 0xe3ff450f4f446e0U, 0xa5f3258aebf8fd7fU,
  0x46b9c42310632900U, 0xd7ff92c9c7168d99U, 0x3deb15811879d9fcU, 0x90ceab5d106ba972U,
  0xf4ab1e10ef0f133cU, 0x81e9faf8d71ef537U, 0xd1f8442500a9a746U, 0x12ed412f2fc12288U,
  0x260b81fd0466ef0bU, 0xbb6a890d05e05c2eU, 0xee4af934ed037fU, 0xd8e0abe8ccfbeb2aU,
  0x49231d1afcf922c1U, 0xf11de5a37d95437fU, 0x15ffeae93dc2fa0eU, 0x373c2cfaf2136022U,
  0x8db7ef001f23ddf0U, 0xe0d00bf581e4ee0cU, 0xf7091623fcbeff0bU, 0x62215fee622da2fU,
  0x121707faf8d9e51fU, 0x3b17ffce6ff028eU, 0xfc1ffcdae7b012e3U, 0xe0d620e11e19e081U,
  0xd74d5b0bc8c5eedbU, 0xbf1fc1c6cf214fbU, 0x1ce3e5e15a941f08U, 0x91eb812f08d1b6a9U,
  0xe3a7fd021b41b54bU, 0x7fc6a45f904610e4U, 0xb6e931f8bfdb054aU, 0x24ed1710db261045U,
  0x3d2521bdcee71e7fU, 0x2cf9570a4715eafbU, 0x60730d516f8087fU, 0x2c6f8dfcfee1fU,
  0x4f1353effe1c04d9U, 0x1ea73fd7d2c61902U, 0xa982cc564292b02U, 0x78e1ac8131abf540U,
  0x1016e3e650e2cfb0U, 0xed9881439e030fe9U, 0xaebc1b8d130603f2U, 0x10d71fe38de72dfbU,
  0xc31541aaa6187f58U, 0x2618a1932407bdf1U, 0xe4e5c84a0db2ba34U, 0x5d11de4eee32f7fU,
  0x1736fce83018cbb3U, 0x9506f12139234013U, 0x337f774f5c28cad1U, 0xf0746ea458829f5U,
  0x101a0cf3217fea10U, 0x2df60f0f081c7000U, 0xcc05e2d784fae928U, 0xed3e19ca4a401e18U,
  0x201d15364cda2281U, 0xe5f52917b7fe1dfcU, 0x9be0fc4f12b0bc9U, 0xccb716ca810411d4U,
  0x15f0f923fdf704d9U, 0x17e1062b0917db0cU, 0x25de20c9a62e2281U, 0x3e07ec161ddad80fU,
  0x230907c42dbb00ecU, 0xa7f929dfd753d481U, 0xdaeb46f82627a20eU, 0x1605d9dde5061815U,
  0x7f5a240c3cc90a33U, 0x29e23602ef07fcf0U, 0x31e8e83ca168115U, 0x38f41e94dd22ec3bU,
  0xecf1f24b073a113eU, 0x7f1505f50b221e01U, 0x4635ff1f33f303efU, 0xe8fc0ae60dff0108U,
  0xe34a382cfae6d7d8U, 0x9825241a4bf0200aU, 0x1a04467fec244cecU, 0xfd11d7b61402a50aU,
  0x32fa1b81064ce220U, 0xd7e9ca6f04e8e217U, 0xcb5e2bcccde6f917U, 0xf5e4d048bece0037U,
  0x8c37fe0e19dece0U, 0xeb3503d63601d2ffU, 0xdaf9fa7f5cc62cadU, 0xe101615cd50c1608U,
  0xdb1ab9c310ebf6fbU, 0x7f38cc5b34158bc3U, 0x2bbfcc08dadf042aU, 0xc8f71309d500b60dU,
  0xc6e741d059ec3c81U, 0x3749411be0c521ebU, 0xa2ec061428422cc6U, 0x17212529151515b0U,
  0xcb1b2df307813926U, 0xf5ad19a19fee0609U, 0x62fad8ff9000db2fU, 0xf0f79581858af9d0U,
  0x1ee4eb164f0baebaU, 0x11bcf0fc211a27f0U, 0x7fd9e6c138bfbd1eU, 0xe9e32a3dbcdc061bU,
  0x1181e4e519042a3dU, 0xb00837f6fa0ad9e4U, 0x28a025eac014d711U, 0x7a448c017d28636bU,
  0x137f195b0e9d9a12U, 0x36f0237f0fe63ff7U, 0xfef7c8b9b0370412U, 0x7d3ae90316fdb304U,
  0xcbf5f3df0df6efe3U, 0x7f24f5576de6a984U, 0x7238396882435188U, 0x47fb7fc0e48f53fU,
  0xd143120ff0f6d74fU, 0x9e01e6beef1f21d4U, 0x24f3e5b2a500c901U, 0xe1e2d5ff4d9ac0aaU,
  0xb6491ce6273eeb7fU, 0x4b3c2316c711fbd4U, 0xcc570802448139eeU, 0xc430c9eac82a47fbU,
  0xceceb791b726daU, 0xd505e4bc4b0684ceU, 0x42000f11fe53181U, 0xfd2a111fcd22f799U,
  0xfc1809afdcfee8f5U, 0xff9fcd3f436da7fU, 0xea3a0be603f9412fU, 0x816870a94b1f44fdU,
  0x2c24e4271cfa1604U, 0xd08502d8e40d2b2dU, 0x7f00dfeaa213e0eaU, 0x2e2d5a501c4e2f7U,
  0xc817bd15188124f1U, 0x175121114b3a2aeaU, 0x9be60dedf9ec1de0U, 0x2704c1e7ccf60036U,
  0x9ddc2a087fe926d3U, 0x29f73ef3fdddb023U, 0x15ea0e3cc9e2fddfU, 0xc8130cbf6ee114fU,
  0xf53438022b08f4d7U, 0x9a70d5450cc8d324U, 0x370bf6181f4c93dU, 0x94d0267a98cccb1aU,
  0x350b2a20150af7U, 0x81cf38d9e3d2c21aU, 0x1e42437f6b33fae3U, 0xf1a94edc0af8eaf4U,
  0xbc2c7231e81dd04U, 0xb1ef913cf5519fc7U, 0xfe1846141c2003f6U, 0xdeea3dc004fd7f46U,
  0x6abada0d272dfc51U, 0xd1e21fa94fc2baeU, 0x183fbfdebe78e913U, 0x90670f4f2e6197fU,
  0xca7f04058b80011U, 0x1f19403f00e409feU, 0x312933571bdad77fU, 0x154be3507ff8b192U,
  0x32ab1e4558e00327U, 0x20eb6253fb05f918U, 0xe01f02302f8122bU, 0x81891cbad516f3eaU,
  0xe3e634000ff6f402U, 0x2c43115106232304U, 0xd55231a73fb059efU, 0x33e3d30d1c8183daU,
  0xeed1d80402ee04f5U, 0xcc26d5087ff80f0cU, 0xf31a24e50cf0ec0dU, 0x48c1e4c817ade005U,
  0x32d5fbcc1eff8103U, 0xfef9d99552e63ed4U, 0xfadaf2492e0dbb7eU, 0xee0f0a29ba17d74aU,
  0x9bf2f3abfdbdf87fU, 0x2234811cdb983ed0U, 0xee3571fd6cee2e34U, 0x1cfaeaff1ff50cfeU,
  0x8e8db242311e560U, 0x7ffff33dc212ebdeU, 0xe80cd1bef0e0e246U, 0x1206b60db4b0dbddU,
  0xbcfbe2ee42f781e7U, 0xe02608260ee43ea4U, 0x424531017fec2dd6U, 0x7b8cd09e9200f2cU,
  0xccb0e8d0f4572ea3U, 0x76cb82d5921d881U, 0xf8a8f22c73f3f80eU, 0x210f703bda390b1fU,
  0x5a50ae00dfef70bU, 0xdec604640ad1f7feU, 0xfaffbf12007ff1ddU, 0x81ccd2dc11ddd1f1U,
  0x130c1f77f30a49ecU, 0xbbf803f98ea2fe26U, 0x14cde211e5d614fdU, 0xd4e3f863f6e0160aU,
  0x2423f4cc147f3a11U, 0xe906c88169463743U, 0x732cf04267f64082U, 0x70c2cfab6c1451cU,
  0xed107ff3d2ac12feU, 0xd80c4a082207a0a7U, 0x11d7c960dcc77c27U, 0xf1fb1fea1e30f80eU,
  0x7f03ec2619e437f0U, 0x10ff29edf6f52bf7U, 0xd52d0e5bbc0bef81U, 0xf930f1ec252dd3eeU,
  0xe2c0a7d6ee18bd4aU, 0xfdf1fd47eff70a81U, 0xf814f4022b5004fcU, 0xcd008e1dfeedf519U,
  0x3d0125dd18002be8U, 0x6e76814e12fd0a5dU, 0x100aea0021eb05dfU, 0xe1fa2cdb2cb6080eU,
  0xaf9b8106a507e8fdU, 0xeb57b720e9ec2410U, 0x18db4a55811d19c1U, 0xe84370fcc2079610U,
  0x14c2c83fedfbd9d3U, 0xadf74881baf116c2U, 0x8f1117a562115c0fU, 0x290dedaf0ede57b8U,
  0xfa1fd7ce07fddbf7U, 0x2e257ffc3c9deb01U, 0xd9ecf004090e1700U, 0xd70c16eafd41f456U,
  0x3c7fb761e817d7b9U, 0xc1fdd102c1b7e81fU, 0x2cddddfaf62c087aU, 0x7f3fc3fc20ca1056U,
  0x64e96fd60532daddU, 0xfff134ee28f30e7fU, 0xdac2cee1c80df02eU, 0x33420a2710e643c6U,
  0xdb161a9a1e291f18U, 0x180818114aea1f81U, 0xdced05cbc4e137e4U, 0xca1ab6a2ddce222eU,
  0xc74270a271edcf2U, 0x22f8e0c581fe3ce5U, 0xf701034aeaf0f981U, 0xdbe1eb0fac5b01f1U,
  0xf1dfc91df108d3fcU, 0x41c0f21a1bbdef39U, 0xe82cd937b6f5ea1dU, 0x81d81ad7ecc61152U,
  0xf7f30ad6de140f15U, 0x690a20313e3feecfU, 0xd7227fe1edd30706U, 0xd9f86536db23c327U,
  0x39da4f43810f1efeU, 0xebe1f3e1369eaf30U, 0xdf874693f5fabaeeU, 0x10bdaf593a81cdfcU,
  0xaa50d122d55fe601U, 0x237fd458d1aef2a8U, 0xc7effa0cfd0b3365U, 0xf9020851485dd8dcU,
  0xee3f290be0f61af9U, 0xdf0ccc12a8761b81U, 0x16345cd105db44ddU, 0x1e27da7f03c8f61fU,
  0xcdc0e0cd601d82dU, 0xc35ec3b4111f109U, 0x1b3310ead511de01U, 0x5050cfa6062916c3U,
  0x237e7fbe25f84079U, 0xf481e23a2eb60738U, 0x1260cab33e3244c1U, 0xeb1d272106335101U,
  0xe532aed722e0e1f8U, 0xc77fa32b4ef4018eU, 0x44bbc5e2df03f54cU, 0x58108e407d0170dU,
  0x181529f7f4020509U, 0x1a19d8d607d0ed2cU, 0x6f01f33b1f208e3U, 0x14814ac7f5f1185aU,
  0xdb4f2e1034fd13e2U, 0x1a2aee18cb8104efU, 0xe23c1ee2e4f5fe0fU, 0x6e26ba3122f7e320U,
  0xd87135f8edfadfd2U, 0xa9f72b4349eb28d9U, 0xb527f12020604U, 0x120eb00ae6fd19eeU,
  0x6fdf9073fee81a7U, 0xff58225a160bebf0U, 0xf82db9e30b13020fU, 0x3a6bb01a4705e933U,
  0x4f81fce60ae51b2dU, 0x11ebfaffdb0f1f01U, 0x7fe0f3dce7fa20c6U, 0xf227242202140fecU,
  0xee25fe1104ede7d6U, 0x7fe704ffd2e0eeeaU, 0x4507d9eb131111ddU, 0x1b83af4f2d3e40cU,
  0xf081daf3ea0441acU, 0x8ec672bfe5e6d1e9U, 0xf315dd00def8ebabU, 0x96b212e78e72681U,
  0xcaddece5ebc30748U, 0xef36e034e9e504e8U, 0xdc05080e3ae481f0U, 0xda34437cf847449fU,
  0xf0f570fe18148f5U, 0xce078bedd394d7f4U, 0x236f15b9225b0857U, 0x92c4da8123dcaefU,
  0x4106e58113efac2cU, 0xac25d14b04fbf331U, 0xffd8de3fc0e12ff6U, 0xe9e3047b148113e2U,
  0x190d1899315f5225U, 0x2b486ec50acaf0f8U, 0x411453cdf546d811U, 0xb7f3dce26301a5fU,
  0xf92e06f3f0f7dc12U, 0xe4dbc1213929f881U, 0x10090cdbebdaf0ffU, 0xf89e02f297cb1632U,
  0x277f2fb586ebcca6U, 0x7332d6b03fc2121U, 0x15fcdb8110f59e18U, 0x1aea0499fb5cdf52U,
  0xea0cf163024ff114U, 0x19aff91cea91e50dU, 0x10b741b8bef71013U, 0x6ecc9a9c7ff2e01dU,
  0xde28d5ebf8fe12c2U, 0xf679d9327f0702bfU, 0xb9f424e9e5011ac3U, 0x1d1d9addd0416ccU,
  0xfdb8dac94f10e3faU, 0x3700f281dcfa17cdU, 0x18ae0000dc48U, 0x11c4ffffff29U,
  0x9837000000f0U, 0x6d1c00000b12U, 0xbe4f00003ac6U, 0x53d1000016aaU,
  0x4a12ffffe7cdU, 0x4fcb0000234cU, 0xfffff2c700006529U, 0x4fd5000060daU,
  0x292f0000456cU, 0xffffff8d00002670U, 0x387900004785U, 0x329b000037d6U,
  0x6d4700003896U, 0x264000002f1bU, 0x233600002b8eU, 0x11e9ffffffdaU,
  0xfffff25bfffff006U, 0x24cc00004e29U, 0x1ed500002c34U, 0x785800001615U,
  0x2a8f3000012b1U, 0x592100003e30U, 0x32e200001b61U, 0xe35ffffecadU,
  0x9cdb00001cc9U, 0x228d000008d7U, 0x17320000275dU, 0x23350000382eU,
  0x599100001ae8U, 0x3cd700001aa0U, 0x3180ffffd87fU, 0xffffee4c00002af3U,
  0xffffffe0fffffa13U, 0x4d5ffffe52aU, 0x49ec00001018U, 0x12700000643cU,
  0x549b000034abU, 0x33f400004a9aU, 0xfb00003a1bU, 0x685400004162U,
  0x2f7a00003f85U, 0x258400002cdfU, 0x5b1effffe5a5U, 0x13b200001f07U,
  0x1d50000398eU, 0xf8700001047U, 0xbf200000216bU, 0x2fc2fffffcbaU,
  0x351f00004c80U, 0x556bffffc44cU, 0xfffff1f000000a1dU, 0x50c00002b28U,
  0x30db000031f0U, 0x66f800005bc5U, 0x1a4b000025daU, 0x5b6500002a64U,
  0x66b1ffffffccU, 0x5061000038a7U, 0xfffff180ffffede4U, 0x1d5a0000399aU,
  0x39e90000451cU, 0xffffe967fffff080U, 0xfffff55400003cc2U, 0x243200002b52U,
  0xffffecd100002e05U, 0x4efa000039c2U, 0xfffff055fffff7c6U, 0xfffffc41fffff78eU,
  0x65e800003444U, 0xeae00005cf7U, 0xf808dd3788fe01fcU, 0xdf38cfe2eb4fdf2U,
  0xf601f609ef0b0c00U, 0x1f07dd0813f3eff6U, 0x41608df0b171f0eU, 0x12d1ea9307ec2f0dU,
  0xac60614eafe08afU, 0x9f01f7f8f1fae8f4U, 0xa3d0f91709301219U, 0x958edfad6d9ed2bU,
  0x81fc1610f50cee0bU, 0xefe37fe8d20402e7U, 0xfe130df0b0280004U, 0xdfefa0ffe182715U,
  0x100504fe1a0a0013U, 0xd4bd1114dc05070dU, 0xfa27e024f51af8fdU, 0xf10180327042214U,
  0x1de2623cd7f7f0fU, 0xdf03cd32c5972aadU, 0x29e8abe7c4050fecU, 0x7ff995e1c01117b5U,
  0xe5fa0fd17ff32403U, 0xe48181dddafafa7fU, 0xbd81fefb282deaefU, 0x9c47a7f5e716dbe4U,
  0x93ce81364e7ffd06U, 0x59c7fe0b7e10a20U, 0x3f057fee19e03013U, 0xd3ea4af8810df481U,
  0xfa07fadc8108fcdaU, 0x7fc506ba1c7f8122U, 0xe003fbd77fcecef2U, 0x78bf7ff0f27f1212U,
  0xcb12a034b65b04U, 0x447f69de4d113c2cU, 0x170efc2c1affffefU, 0xc0f9ffef90c72e4U,
  0xf915cf1720f509feU, 0x1bfcb10909e8ffecU, 0xdf020df011429f7U, 0xfecee68e01ed0518U,
  0xf70202e3e9021135U, 0xa5040b06f1e61ce6U, 0x812bf60ff2f9fb1bU, 0xeffb25fcf6d704efU,
  0xbfc2407e6eae70bU, 0xe3e610e8cff30de3U, 0xfe1901f0b81f031bU, 0x142b0a0e0717b1cdU,
  0x4f8fbe514fcddb7U, 0x212b0f04090cfc0fU, 0xf7f7d0150614f5fbU, 0x7f0a0418190b2a31U,
  0x7fc03017b62efae9U, 0xf58cd0247c761481U, 0x37cabdd50de61300U, 0xef7fd7afcfdbaf18U,
  0xd17f10f0f37f25ccU, 0xb70ea3e0f7057ff3U, 0xcfe8cc7f360f4d1dU, 0x89af5c47e845f5e5U,
  0xafc048354875c304U, 0x7a7f69efeefbe77fU, 0x5dbcf0da221b18fcU, 0x81e64a9030bc7f97U,
  0xf228f0e9632bfad8U, 0xa82e7fd11fed724fU, 0x236c7cc6d7d012f6U, 0x818dce7917ff1f01U,
  0x47f7f8181d1596eU, 0xcc02f5dbac1d2d24U, 0xc07f7f2fd6daa17fU, 0x95edf7818125815fU,
  0x81c67f9281878181U, 0xd2ea447fb47f7f7fU, 0x7fa3817fbc8681aaU, 0x9d71fd59a17feeb7U,
  0xb4f27fd77f7f817fU, 0x7f0fa9817f677f7fU, 0x3cf4617f7f9fad7fU, 0x9e4ef82817fb29dU,
  0x21ccb49b7f7f7f7fU, 0x697f2d3d57dbb19fU, 0x817f8a7f0f7f9584U, 0xdfbe91c081d04848U,
  0x8110817fc87f7f7fU, 0x1357bd817f097f7fU, 0x81c6d2042ecc7f14U, 0x3cac819a63817f81U,
  0xd2ca462aa33df6deU, 0xf57fb3220181dc9aU, 0x387f977f5d7f17f7U, 0xec92b19be2ccb119U,
  0xd7fe0efed07e1f7fU, 0x3316a2f17f12faecU, 0xfb58aca528194bf2U, 0x8da5ba6df04be8fbU,
  0xad7f41502ca17f04U, 0x81f69aececfa4d17U, 0xd87fd77f2b140cf3U, 0x8fe8f381287fd78eU,
  0xf4287fd2552c7f7fU, 0x4598e9d425e80094U, 0xff810dd6dfc53a13U, 0x4f7fd9ed12f210f9U,
  0xf4bbe7972dd45b81U, 0x47fcfa7f091c1601U, 0x1502fdbd0f1c06efU, 0x8fb810332ddfad5U,
  0xf801d40dec090dfbU, 0xf503c70e15ebfee3U, 0x20fd25e9e01d43fbU, 0xaf9de8713f6b309U,
  0x19eb030fef0b1737U, 0xaf0b32f8e6c616d9U, 0xb3c1ff10edfc110cU, 0x11bded0bd8d9080cU,
  0xefe8e50c01dbeff1U, 0xece809e902090e0eU, 0x717fe06fd0900fdU, 0x2281f1f06f965f5U,
  0x33091df40df9e5baU, 0xe6f30c1c03ea0217U, 0xec116032e4201115U, 0xadf0f8f8b608fe59U,
  0xdff97c81a77bd420U, 0x7ffc901dd06af8a3U, 0x11ecaed829f52af3U, 0x9e0381d57f1f22b6U,
  0xa0040abdfceffce7U, 0x7fff9c0ddd24dcb7U, 0x7f5d04e41a00d8e2U, 0x927f7fe6c181e8d5U,
  0xd138921b35b60103U, 0xfb3d887fb5d481c1U, 0xe9fca6ed75e30e9cU, 0xf1cea0e20506f4c5U,
  0xf3ffe8ea2a1dd4faU, 0xc17fde7f16ac4a81U, 0x2500f6e5c6cdd8efU, 0xb10eebdbe3941923U,
  0xedea219b0a7f6b09U, 0x88ee060881120422U, 0xf70001c6812c0be8U, 0x30a8c03f854fde8U,
  0xf512e3190b040afaU, 0xf5f4ed1414e4fae8U, 0x11f208f4f82d251eU, 0x2cf3ef810eedec04U,
  0x1863fffaf90714ccU, 0xd51ce50de6bfe9d6U, 0xba19f6f5e910f401U, 0xebece20ed9da44e9U,
  0x191cee0d1507eef5U, 0xc7eba7def2f5000fU, 0x4141bf30df62511U, 0xe80dff200d00cbd2U,
  0xf1f301f80e00eb1aU, 0x1b1e0305e9eafb16U, 0xfe04bb2f042215deU, 0x18ed0002ae09f610U,
  0xfffffea7ffffcdd9U, 0x337bffffe368U, 0xffff8d3000003c4aU, 0x1f000000f5U,
  0x41400005927U, 0xafffffa32U, 0x6739fffffff9U, 0xfffffc89ffffff4cU,
  0xffffff4000002671U, 0xfffff976ffffff07U, 0x3810ffffeefeU, 0x105dfffff595U,
  0xfffff7d20000081bU, 0x5efffff2c0U, 0x79e0000001ebU, 0x2a00000027bU,
  0xca1fffffc66U, 0x17b0000382cU, 0xfffffdb8000031e9U, 0xfffffeb7ffffef44U,
  0xffffdb2b00000547U, 0x75cffffca77U, 0xebee00002bdbU, 0xffffee5a0000219aU,
  0xffffea47ffffd5c1U, 0xffffcf00ffffeed6U, 0xa50000034fU, 0x32ffffffb4U,
  0xffffefdd00002906U, 0x3057ffffed3fU, 0xfffff5e5000009ddU, 0x6e4900001005U,
  0xfffffc1dfffff5a4U, 0xfffffc65ffffec6bU, 0x5b82ffffd14aU, 0x2e07000013d0U,
  0xbaaffffe30eU, 0x58bc00006b8cU, 0x7f2fffff596U, 0x289ffffeefaU,
  0xffffd6f4fffff667U, 0xffff924fffffe09eU, 0xfffff6d0fffffda4U, 0xffffeee3ffffffc2U,
  0xffffff09000160ffU, 0xfc6ffffef73U, 0xffffda350000438cU, 0xd3d5fffff1b4U,
  0xfffffe7100000274U, 0xffffedaaffffd513U, 0xffffff2600000eceU, 0x19b2fffffbb2U,
  0xa8fffffe1aU, 0x141dffffffd0U, 0x1adffffff31U, 0xfffff12cffffef44U,
  0xffffc59effffef86U, 0xfffff8c8000012caU, 0x3a800004e1dU, 0xfffffec5000000c1U,
  0xffffed5effffe393U, 0xffffda6600000aaaU, 0xfffff549fffff08aU, 0x45df00007995U,
  0xfffff36efffffe4dU, 0xfffff9ba0000002eU, 0xfffffe8000004d34U, 0x2bf5fffffa74U,
  0xffffdc3dffffff37U, 0xfffffefbfffffecaU, 0x596fffffc3aU, 0xffffd512ffffe68fU,
  0xee5b0c1d1f2bfcU, 0x4f06ffc805fcfaecU, 0x2ffb21070bfce1f7U, 0x140bda04fd3ae2f4U,
  0xecd9fafbdbea150fU, 0xf8f737e9030ef0f0U, 0x1514230d2211dae1U, 0x2dfdee20ce21e3f8U,
  0x8f9f0f0c317dfd2U, 0x9fbe4f52512f0feU, 0xeb0dff1b730dfd01U, 0x190d4d0103c31d64U,
  0x19300981fef5fc05U, 0xd9ff301acaff0e00U, 0xfaf6e8e209dc1b0dU, 0x1fdef0a200929e9U,
  0x2eb0bf9eae4f418U, 0x34fd0b1c1ef1e302U, 0xb13fcc200f313103U, 0xc0204518d7f1c40aU,
  0x2df4edb9fd4d11deU, 0xbfcf00fceb06ec2dU, 0x140f4d1b06fb2fefU, 0x16ed7a33f0f30cebU,
  0xe209fb1208ef0a04U, 0x3c0cf5054fef26a1U, 0xb624d3fc1013f9U, 0x4d9f1cdc15e8e5f5U,
  0x3a4bdbee099a013cU, 0xc8080adb212f4a05U, 0x637e97f1a37101fU, 0xcec2814f028d4ecU,
  0xe212caeddc0d2ef2U, 0x27020ab6cb14ee0dU, 0xcf6abdef6e5c3f2U, 0xe8e2f53ddd3a1158U,
  0xaf8fff521161958U, 0x13f611fe2130c0b6U, 0x1813fc330d1beaf9U, 0x1bdb051f34cb0af4U,
  0x28d703fb3325dcd2U, 0x378124fdf7b6290eU, 0x2fd0ec0bf3cbde03U, 0xe6bc00249d16f9c3U,
  0xfc3ee603ffe1230aU, 0x214153d3b3ed42bU, 0xdad8f4f304e7eaecU, 0x321be11eedeccf04U,
  0x73d00e7f2e7310bU, 0xe939d62c5428dc0bU, 0xff15c8d538b3eaf2U, 0xd8ff3132f24f061cU,
  0xd2ea36ed2004392dU, 0xd5ccbd0df91c0f25U, 0xfac2c4ede7c4ee71U, 0x3ec74e0c647133eU,
  0xbf161bdc01442005U, 0x5eb1c1f30f8d818U, 0x2bd707f41c3a7fc2U, 0x4e13e08c80124f5U,
  0x2413bfff02080427U, 0xd21308ec0f02fd9dU, 0xf41319dd22ce54e5U, 0x11261c22cb270dffU,
  0xd7e9f4e991413dddU, 0xe201cd05561de85bU, 0xe045ad610013cbf4U, 0x3433e5e31d31e3cdU,
  0x3c01f0141a321f35U, 0x5c3e7c1fc03ceb2U, 0xf0f927feeccfc500U, 0x16eac111ddfd29ceU,
  0xe70642d20d3e1a04U, 0x9f1fdec12053625U, 0xe5fff0fae402e80aU, 0xe5f7bd020710ef0eU,
  0xf3f046061a1781e9U, 0xe4ec1ee6c30d06d3U, 0xe412f1eeeafce7eeU, 0x2af50df7aee5e400U,
  0xc4272ee91d0715f2U, 0x223d8fdfcd61bf5U, 0xd0d1f9e8fe39f002U, 0xaf3e5210bdaea44U,
  0x3a13dae6f0e506e6U, 0x3a26edeaf402292aU, 0x2bee08e20019eefbU, 0xe5061ef8f91f2bf1U,
  0x3a030d080fd61418U, 0x2a09e5e0f8df0b4fU, 0x2d6f84d0a3a0734U, 0x372208e4ee08f1f2U,
  0xa311d42d06ddc4f5U, 0xf31404f9ec1cf2c3U, 0xf22e03caf44a6f20U, 0x1bedc2df2bd9fb04U,
  0x6e7cb112828fbf0U, 0x20d5fb1da1ecfce0U, 0xa00fb2a38f92258U, 0xc1e242e00812309U,
  0xfa28f4d8fcfad1e8U, 0x9b0325f4ca0beeccU, 0x1656a121e71c3502U, 0xa163acaed30b004U,
  0x120feef4fa06f0dfU, 0xfba02139ec2c0201U, 0xe850e8e22c0cfbf6U, 0x1b03e9e2381c1f0dU,
  0xc7e5221814f5cbebU, 0xdcff2018230017e9U, 0x182126fa0b2aef1cU, 0xd7f211fcc5283db8U,
  0xda1d3d0bea232107U, 0xe012fe00ea09fae5U, 0xe4d52211161b02dcU, 0xe9152504640ff627U,
  0xa0913e881e2fc08U, 0x390beebaf8253eecU, 0xe030f404d0ece211U, 0xb4d209eefb130cf3U,
  0x17fa0c1915e3230fU, 0x10f0af1e3f3e6dcU, 0x2bf35beffbcefcfaU, 0x5f715eab7dcd51aU,
  0xfa06ed2024400cd4U, 0x5919c2250dedfcefU, 0x31400fbfb01f3deU, 0x3b01f7fe0a0100U,
  0x428050e0216ff03U, 0xf32dfd17ef0df6faU, 0xf8ecfdf1f9fe0230U, 0xf6e1f8030efff1U,
  0xf0fd812efb00e6faU, 0xfbe70c02f2fbfeedU, 0xfc03f9f6fe011e08U, 0x44040ef8f5f0040fU,
  0x331f93101fbfef4U, 0xeeff01df010b30f3U, 0xf8fa2cfd07fb1925U, 0xa0221f6fceffd0dU,
  0xfc410ef4eb0bffffU, 0xfc00f708ffe8faf6U, 0x21f0cfd06030b42U, 0xff09ff2ffe05f501U,
  0xbc0fc61aeb7f1aecU, 0x812ce033aefe658U, 0xe0027f5002a2dacU, 0xded825ecf7244205U,
  0x23fde99ae5eef4ddU, 0x54e9e93525fa21b4U, 0xfce9e818138921ecU, 0xd2600114a2a09d8U,
  0xff14f3bed405f915U, 0x13e214f7cce5010fU, 0xedd1ffd8c8f30be6U, 0xc9041439232cf46bU,
  0xd208ca0609054001U, 0x114c06de0bead30dU, 0xa441d5520e104e1U, 0xe4e8def1f138cd06U,
  0xe9eaea9818f1c207U, 0x17f2e1fffb31f3e3U, 0x937bd7ffd0b17b3U, 0x24ea0a17f41db702U,
  0xcdaf8f139fc3306U, 0x1d0cf8181dfc00eeU, 0xcf019082ad4f2fcU, 0xf41cf6e374fbfb35U,
  0x30de0908ce09d609U, 0xf320fde91e530909U, 0xfb08e8f434f9fac5U, 0x1535162003f3f8f5U,
  0xdcf0e7febf173622U, 0x7df61f0fb1eb0dd0U, 0xfce60ef2da1ee10eU, 0x5e8f9350119a1e3U,
  0x330b63f80815e714U, 0x6a3cafe16150925U, 0x12f9051df6e5e229U, 0x1ee6c70c14eafc1dU,
  0xe02fbfee5f009f5U, 0xcaf401dc02ffe6e8U, 0xcf71bef110eddfeU, 0xf00c7f0c0e2ae8e4U,
  0xefef841e2032fcffU, 0xb124a0417e9fa0dU, 0x160df116f81e0e0eU, 0xe5faf008fb1106afU,
  0x3bfeb10a030b0f0eU, 0x2705f8f4e41bff0dU, 0xbf7f7fd15fff317U, 0xf80622f41e09e312U,
  0x182ef3191213fc05U, 0xdaf9241fc72c0d0aU, 0x1ea209dfbfbf7f5U, 0xee021ff212323002U,
  0xec0f0006e2edf118U, 0x14f80e36fedb11c9U, 0x36fda9a6af572ba5U, 0xe33f97f50d1b081fU,
  0xe0f5ef2815349c81U, 0xf867f115e7c815c2U, 0xe93a11d00f50e415U, 0xdb284dc8d41c2b43U,
